<unk>	0
<s>	0
</s>	0
,	-3.61014
.	-3.83313
▁the	-3.90023
▁के	-4.19222
▁of	-4.2823
▁है	-4.37368
।	-4.51271
▁and	-4.55548
▁और	-4.58679
▁में	-4.60135
▁to	-4.71093
▁की	-4.75749
s	-4.79864
)	-4.86972
▁(	-4.92675
▁in	-4.94821
▁से	-4.97631
▁	-4.99328
▁a	-5.05193
▁को	-5.07325
▁का	-5.18503
▁is	-5.24234
-	-5.38281
▁हैं	-5.55334
▁कि	-5.61405
▁पर	-5.64346
▁for	-5.65714
▁लिए	-5.7134
▁-	-5.71791
▁एक	-5.73378
▁that	-5.76045
▁तो	-5.85331
▁नहीं	-5.87235
▁you	-5.9001
▁जो	-5.92285
▁be	-5.95679
▁The	-5.97601
▁भी	-5.98868
ों	-5.99428
▁हो	-6.05017
▁not	-6.06553
▁ने	-6.14015
▁are	-6.14734
▁किया	-6.15544
▁with	-6.15719
▁on	-6.16955
:	-6.18689
▁कर	-6.18955
▁it	-6.19654
▁or	-6.19869
▁'	-6.20358
▁ही	-6.20474
▁यह	-6.20649
;	-6.2536
▁as	-6.27365
▁by	-6.28561
▁इस	-6.30057
ी	-6.33501
▁या	-6.33837
▁वह	-6.34961
▁have	-6.3561
▁was	-6.37389
▁from	-6.3748
▁they	-6.37599
▁करने	-6.37768
▁will	-6.41511
▁न	-6.43647
ing	-6.44769
?	-6.46657
▁them	-6.48431
▁this	-6.49516
▁"	-6.54605
▁अपने	-6.55945
▁has	-6.57883
▁था	-6.57947
▁which	-6.59674
▁I	-6.59713
ed	-6.60092
▁who	-6.63171
▁their	-6.66446
▁s	-6.69699
▁his	-6.69855
▁तुम	-6.71025
▁वे	-6.72013
▁गया	-6.72971
▁He	-6.7315
▁तथा	-6.76856
▁an	-6.77356
▁कुछ	-6.77825
▁he	-6.78424
à	-6.79743
▁किसी	-6.80764
▁at	-6.88101
▁Allah	-6.89128
▁हम	-6.89687
ा	-6.90011
▁साथ	-6.90023
'	-6.90183
▁कोई	-6.91017
▁And	-6.92126
▁all	-6.9231
▁उनके	-6.94778
d	-6.96059
▁रूप	-6.96131
▁थे	-6.96654
▁द्वारा	-6.97891
▁We	-6.98498
न	-7.01782
▁your	-7.01862
▁करते	-7.02332
!	-7.02763
%	-7.03091
▁A	-7.03543
▁लोग	-7.03643
▁जब	-7.03836
▁लोगों	-7.04017
▁दिया	-7.0535
▁India	-7.06727
क	-7.07411
ता	-7.07488
/	-7.09142
▁भारत	-7.09828
▁तक	-7.1132
▁but	-7.12899
▁one	-7.15264
▁फिर	-7.15589
▁we	-7.16013
▁ये	-7.16238
▁जा	-7.16415
े	-7.17052
▁जाता	-7.19112
▁been	-7.20144
▁करें	-7.20735
▁उसके	-7.21118
▁क्या	-7.21791
▁do	-7.2299
▁were	-7.23847
▁कहा	-7.24002
▁करना	-7.24319
▁अल्लाह	-7.24419
▁any	-7.24507
t	-7.24707
ly	-7.25149
¤	-7.25458
▁उस	-7.25891
▁ख़ुदा	-7.2652
▁had	-7.26743
▁अपनी	-7.2701
▁can	-7.27781
▁those	-7.29037
▁him	-7.29262
▁रहे	-7.30612
▁said	-7.30892
▁In	-7.30978
▁people	-7.31162
▁when	-7.32815
▁हुए	-7.32888
▁It	-7.33471
▁shall	-7.33929
▁उन्हें	-7.35801
▁मैं	-7.35902
▁करता	-7.36033
▁उन	-7.37537
▁होता	-7.37938
▁/	-7.39011
▁आप	-7.40692
▁रहा	-7.40712
▁so	-7.4138
▁थी	-7.41497
▁other	-7.41619
ना	-7.42174
▁also	-7.42269
▁“	-7.42295
ं	-7.42408
र	-7.4252
▁उसे	-7.42585
▁सकता	-7.4294
▁if	-7.43196
▁its	-7.43856
▁what	-7.4406
▁God	-7.44116
▁दो	-7.46256
▁_	-7.47036
er	-7.47183
▁there	-7.47363
▁no	-7.47637
▁बहुत	-7.48328
▁our	-7.48745
▁समय	-7.49121
▁may	-7.50378
▁Lord	-7.51304
a	-7.53323
ने	-7.55822
▁This	-7.55994
▁1	-7.56706
▁तरह	-7.58525
▁अधिक	-7.58662
▁वाले	-7.59176
▁बात	-7.59193
▁उन्होंने	-7.6024
▁would	-7.60389
▁हुआ	-7.60436
▁आ	-7.60935
▁बाद	-7.61466
▁पहले	-7.61881
▁only	-7.62931
▁such	-7.63201
i	-7.63349
म	-7.64048
▁हमने	-7.64377
e	-7.64383
▁time	-7.64609
▁out	-7.64698
▁पास	-7.65554
ः	-7.66557
▁होगा	-7.66619
ल	-7.67228
▁उनकी	-7.67759
▁तुम्हारे	-7.68006
▁यदि	-7.68175
▁up	-7.68658
▁गए	-7.69275
ो	-7.69787
▁दिन	-7.69892
स	-7.70142
’	-7.70174
▁then	-7.70595
▁ओर	-7.70663
▁”	-7.7098
▁made	-7.71417
▁गई	-7.71738
▁दी	-7.72413
▁सभी	-7.72846
त	-7.72947
▁कार्य	-7.73775
▁ऐसे	-7.74009
▁होने	-7.74193
▁under	-7.74269
▁हमारे	-7.74752
▁राष्ट्रपति	-7.75033
in	-7.75187
▁more	-7.75332
y	-7.75451
▁about	-7.75611
m	-7.7629
▁अन्य	-7.76495
▁should	-7.76853
▁सकते	-7.77637
▁काम	-7.77652
कर	-7.78057
▁[	-7.78358
▁प्रकार	-7.78527
▁into	-7.7913
▁चाहिए	-7.79256
▁like	-7.79965
▁प्राप्त	-7.8033
▁&	-7.80721
▁इन	-7.80945
▁व	-7.81017
▁इसके	-7.81301
al	-7.8262
▁But	-7.8314
▁me	-7.84052
▁They	-7.84134
▁उसकी	-7.8432
▁किए	-7.84357
▁होती	-7.85279
▁over	-7.85296
▁S	-7.86113
▁than	-7.86207
▁क्षेत्र	-7.86263
▁two	-7.87037
▁my	-7.8792
▁जाने	-7.89535
"	-7.90266
▁some	-7.91112
▁ऐसा	-7.91265
▁एवं	-7.91321
▁these	-7.91875
▁So	-7.92359
▁अब	-7.92962
▁करो	-7.93
th	-7.93122
▁अगर	-7.9359
▁दे	-7.93898
▁भारतीय	-7.94356
▁नाम	-7.94384
▁before	-7.9444
]	-7.94525
▁ले	-7.94562
▁देश	-7.94584
▁us	-7.94599
▁(_	-7.9517
▁कम	-7.95376
n	-7.95464
▁सब	-7.95901
▁सरकार	-7.95912
▁अ	-7.96009
▁new	-7.96714
▁मुझे	-7.96793
▁रसूल	-7.96965
▁after	-7.97204
▁विकास	-7.97599
▁कारण	-7.98015
▁2	-7.98365
▁His	-7.9884
ें	-7.9917
▁हुई	-7.99359
ित	-7.99557
r	-8.00587
▁life	-8.01592
▁day	-8.03316
▁राज्य	-8.03383
▁उसने	-8.03872
ियों	-8.04402
▁लेकिन	-8.04814
▁लिया	-8.05278
▁say	-8.05307
...	-8.05558
▁Indian	-8.0589
▁दोनों	-8.06266
▁जाती	-8.06506
▁व्यक्ति	-8.068
▁प्रति	-8.07297
▁तुम्हें	-8.07338
▁हर	-8.07555
▁her	-8.08941
▁being	-8.10068
▁ऐसी	-8.10162
▁वर्ष	-8.1058
▁जीवन	-8.10898
▁होते	-8.11498
es	-8.11645
ए	-8.11863
▁जिस	-8.12069
▁‘	-8.12181
ते	-8.12959
S	-8.13346
▁प्रदान	-8.13729
▁बारे	-8.1389
▁make	-8.1439
▁रही	-8.14419
▁बीच	-8.14787
▁à	-8.15104
▁If	-8.15118
▁good	-8.15361
▁वाला	-8.16139
व	-8.1641
▁world	-8.16531
प	-8.1703
▁You	-8.17392
▁through	-8.1761
ई	-8.17861
▁जैसे	-8.18662
▁President	-8.19031
▁between	-8.19567
।"	-8.19923
▁used	-8.20274
re	-8.20363
▁उसका	-8.20482
▁country	-8.20733
ट	-8.22857
ग	-8.22894
▁come	-8.23312
▁ईमान	-8.23444
▁well	-8.23518
▁first	-8.23719
▁down	-8.24249
▁C	-8.24274
▁know	-8.24881
▁way	-8.25288
ऐ	-8.25305
▁does	-8.25445
▁Government	-8.25524
▁जाएगा	-8.2553
ओं	-8.25615
▁रब	-8.25969
▁could	-8.26033
▁name	-8.2656
▁years	-8.26706
ज	-8.26813
▁केवल	-8.26945
▁उनका	-8.27278
b	-8.27458
▁upon	-8.27657
▁many	-8.27763
▁हमें	-8.28121
▁मेरे	-8.28377
▁work	-8.28491
▁3	-8.2853
के	-8.28599
▁अपना	-8.28836
▁year	-8.29023
द	-8.2976
▁जिसमें	-8.29819
▁very	-8.30385
▁did	-8.30426
▁There	-8.30893
▁हूँ	-8.30947
▁All	-8.3165
ि	-8.31803
▁Act	-8.32083
▁वही	-8.32556
▁most	-8.32652
▁उपयोग	-8.32667
▁earth	-8.3294
st	-8.33091
▁भाग	-8.33179
ह	-8.33327
▁ताकि	-8.33458
▁against	-8.33657
▁प्रयोग	-8.34547
ती	-8.34686
▁बार	-8.34806
▁वाली	-8.3484
▁देने	-8.35176
▁सबसे	-8.35329
ब	-8.35878
▁इसे	-8.36327
▁see	-8.36393
▁उसी	-8.36627
▁श्री	-8.36766
▁take	-8.3703
▁जाना	-8.37121
O	-8.37333
c	-8.37396
्	-8.37533
▁हमारी	-8.37743
▁where	-8.38266
▁O	-8.38299
▁To	-8.38459
▁अधिनियम	-8.38554
▁बड़ा	-8.38596
▁बना	-8.39174
▁पैदा	-8.39378
▁जाते	-8.39444
▁देता	-8.39499
ख	-8.39727
▁पूर्व	-8.39997
▁इसमें	-8.40261
able	-8.40415
▁ऐ	-8.40419
▁जाए	-8.40537
▁आज	-8.40816
▁even	-8.40982
्स	-8.41062
an	-8.41565
▁believe	-8.41673
▁बस	-8.41928
▁धारा	-8.41957
I	-8.42056
▁P	-8.42181
श	-8.42545
▁राष्ट्रीय	-8.42778
▁तब	-8.4294
▁given	-8.43045
▁जिसे	-8.43513
या	-8.43623
▁among	-8.43633
▁मे	-8.43833
▁अथवा	-8.43955
▁B	-8.44133
▁un	-8.44207
▁<	-8.44462
▁man	-8.45117
▁because	-8.45248
▁Him	-8.45372
▁right	-8.45529
▁part	-8.45659
िक	-8.4578
▁स्थान	-8.46793
▁place	-8.46844
▁State	-8.46969
▁उससे	-8.47051
▁D	-8.47314
▁परवरदिगार	-8.47328
▁क्योंकि	-8.47369
▁उनसे	-8.47527
का	-8.47651
य	-8.47666
▁must	-8.47841
▁कह	-8.48396
ीय	-8.48595
l	-8.48671
or	-8.49299
▁give	-8.49461
▁सी	-8.49524
▁सकती	-8.50235
▁शिक्षा	-8.50412
▁संदेश	-8.5059
▁every	-8.51088
▁per	-8.51396
▁ye	-8.51493
▁करती	-8.51913
▁>	-8.52056
▁re	-8.52094
▁स्थिति	-8.52169
▁own	-8.52275
▁चीज़	-8.523
”	-8.52433
▁sent	-8.5259
▁water	-8.52767
सी	-8.52848
▁दूसरे	-8.52916
▁इसलिए	-8.53995
▁Day	-8.54305
▁use	-8.54326
▁सूचना	-8.54508
▁need	-8.54541
▁सहायता	-8.54719
▁As	-8.54802
▁When	-8.55227
ला	-8.55361
▁great	-8.55842
▁बड़ी	-8.5628
▁whom	-8.56495
▁होना	-8.56697
री	-8.56726
▁how	-8.57329
▁number	-8.57469
▁away	-8.57485
▁उनमें	-8.57548
▁हूं	-8.57845
▁होगी	-8.58
▁am	-8.58115
▁विभिन्न	-8.58119
▁जिन	-8.58125
▁कभी	-8.58276
▁मेरी	-8.58613
▁विशेष	-8.58759
▁No	-8.58799
▁शामिल	-8.58827
▁कई	-8.58875
▁set	-8.59046
▁back	-8.59292
▁L	-8.59325
A	-8.59367
▁now	-8.59477
रा	-8.5953
▁ए	-8.59535
▁स	-8.59988
▁योजना	-8.60142
▁जी	-8.60262
▁get	-8.60352
▁बल्कि	-8.60365
o	-8.60546
▁आय	-8.60547
▁दौरान	-8.60795
▁इससे	-8.60917
▁लिये	-8.61051
▁विचार	-8.61104
▁For	-8.61254
▁कहते	-8.61319
▁करके	-8.61677
▁आगे	-8.62017
▁during	-8.62076
▁person	-8.62224
▁यहाँ	-8.62407
▁sub	-8.62526
▁Our	-8.62617
▁अधीन	-8.6265
▁%	-8.62875
▁same	-8.62918
▁section	-8.63076
ड	-8.63142
▁अनुसार	-8.6333
▁go	-8.63406
▁5	-8.63413
▁पता	-8.63438
▁while	-8.63936
."	-8.64068
▁M	-8.64149
▁सेवा	-8.64235
नी	-8.64333
▁d	-8.64476
▁system	-8.64532
▁फ़ाइल	-8.64618
▁संबंध	-8.6464
▁जहां	-8.64895
▁होंगे	-8.64917
▁case	-8.64955
▁power	-8.65077
▁each	-8.6508
▁उनको	-8.65807
▁तरफ	-8.6589
▁:	-8.66287
ness	-8.6653
ers	-8.66628
एं	-8.66698
▁long	-8.66803
to	-8.66889
▁आधार	-8.66889
▁विश्व	-8.674
▁उपलब्ध	-8.6743
▁both	-8.67517
▁सामने	-8.67732
▁e	-8.6774
और	-8.68221
▁इसका	-8.68246
▁यही	-8.68343
:%	-8.68349
ज़	-8.68577
▁order	-8.68616
▁जिसके	-8.68658
▁called	-8.69149
▁etc	-8.69166
▁development	-8.69252
▁–	-8.69271
▁she	-8.69318
▁पूरा	-8.69503
▁help	-8.6957
की	-8.69666
▁another	-8.6983
से	-8.70243
▁देते	-8.7031
▁file	-8.70409
▁विषय	-8.70568
▁करेगा	-8.7057
▁F	-8.70814
▁घर	-8.70954
▁सूची	-8.71
▁things	-8.71008
▁उसमें	-8.71106
▁तैयार	-8.71213
▁संबंधित	-8.71389
▁करे	-8.71513
▁just	-8.71818
ity	-8.71968
▁बाहर	-8.72138
▁Then	-8.72188
▁nor	-8.72572
▁अलग	-8.72668
▁men	-8.72731
▁K	-8.72755
▁निर्माण	-8.7298
▁An	-8.7315
▁Do	-8.73189
▁चाहते	-8.73314
▁याद	-8.73534
▁मार्ग	-8.73656
▁10	-8.73762
▁here	-8.74041
▁प्रत्येक	-8.74232
▁indeed	-8.74255
▁आपको	-8.74722
▁three	-8.74996
on	-8.75006
▁हों	-8.7548
h	-8.75497
▁without	-8.7554
▁came	-8.75566
▁संख्या	-8.75585
▁4	-8.75627
वा	-8.75875
▁अवसर	-8.76053
C	-8.7622
िंग	-8.76367
▁प्र	-8.76377
▁National	-8.76887
▁नई	-8.76894
▁वि	-8.76941
▁knowledge	-8.77116
▁R	-8.77227
ation	-8.77447
▁इसी	-8.77492
▁बनाने	-8.77517
▁अच्छा	-8.77729
▁different	-8.7808
▁बड़े	-8.78278
▁Shri	-8.78336
▁लगे	-8.78604
▁जारी	-8.7881
ु	-8.78823
x	-8.78824
▁18	-8.79001
▁प्रक्रिया	-8.79014
▁मुख्य	-8.79322
ic	-8.79359
▁पूरी	-8.79528
▁G	-8.79643
▁means	-8.7975
▁E	-8.79773
▁आदि	-8.80001
▁account	-8.80181
▁लगा	-8.80229
▁तुम्हारी	-8.80346
▁want	-8.804
▁information	-8.80452
▁found	-8.80502
▁much	-8.80754
▁अनेक	-8.81068
▁OF	-8.8118
▁आपके	-8.81228
▁सं	-8.81442
सा	-8.81678
the	-8.82148
▁land	-8.82186
ment	-8.82595
▁रखा	-8.82797
▁स्वयं	-8.82809
▁निश्चय	-8.83122
ली	-8.83247
▁period	-8.83249
▁N	-8.83771
▁ऊपर	-8.8378
▁पानी	-8.83784
▁गये	-8.84039
्य	-8.84095
▁ज्ञान	-8.84327
▁'%	-8.84548
▁भाषा	-8.84714
k	-8.8496
मा	-8.85179
ण	-8.85206
▁उच्च	-8.85223
B	-8.85543
▁हेतु	-8.85985
▁On	-8.85985
▁state	-8.86063
▁(1)	-8.863
▁चाहता	-8.86301
▁15	-8.86577
▁truth	-8.86785
▁सामान्य	-8.86829
▁तीन	-8.86836
च	-8.87108
▁women	-8.87142
▁Say	-8.87211
▁जल	-8.87555
▁बनाया	-8.87603
▁भवन	-8.87671
ar	-8.87807
▁शुरू	-8.87815
▁बन	-8.87869
▁unto	-8.87959
▁स्तर	-8.88086
▁महत्वपूर्ण	-8.88175
u	-8.88269
▁form	-8.8847
▁end	-8.88828
us	-8.89018
▁That	-8.89336
▁खुदा	-8.89345
g	-8.8935
▁करेंगे	-8.89757
▁अर्थ	-8.89808
▁बैंक	-8.8985
▁created	-8.89853
▁दूर	-8.89856
▁दुनिया	-8.89957
▁माल	-8.89963
▁तुम्हारा	-8.90152
▁ध्यान	-8.90716
▁उत्तर	-8.90831
▁cannot	-8.90881
▁जिसने	-8.90959
▁क	-8.91019
▁become	-8.91067
▁धर्म	-8.91107
as	-8.91131
▁find	-8.91186
ion	-8.91328
▁अधिकार	-8.91554
▁यहां	-8.91558
▁message	-8.91629
p	-8.91875
▁fear	-8.92062
अ	-8.92138
▁important	-8.92258
▁बेशक	-8.92296
जी	-8.92381
▁हाथ	-8.92397
▁let	-8.92453
▁शक्ति	-8.92502
▁except	-8.92538
▁सके	-8.92548
▁नीचे	-8.92752
▁ठीक	-8.92799
▁देना	-8.92815
▁T	-8.93088
▁रंग	-8.93089
▁मैंने	-8.93185
▁बिना	-8.93204
▁प्रतिशत	-8.93295
▁b	-8.93326
▁What	-8.93345
▁देखा	-8.93399
ओ	-8.93967
▁income	-8.9427
▁company	-8.94421
▁प्रमुख	-8.94466
▁प्रौद्योगिकी	-8.94845
▁क्षेत्रों	-8.94971
आ	-8.95162
▁किताब	-8.95277
▁taken	-8.95543
▁surely	-8.95568
▁today	-8.95667
▁गयी	-8.95816
▁known	-8.95919
P	-8.96069
▁सु	-8.9607
▁स्पष्ट	-8.96126
▁जिसका	-8.96193
▁लेकर	-8.96245
▁These	-8.96294
▁पीछे	-8.96627
▁लाभ	-8.96666
ड़	-8.96685
▁किन्तु	-8.96764
?"	-8.96814
▁म	-8.96854
▁ज़मीन	-8.96902
▁माध्यम	-8.96946
▁मदद	-8.97189
D	-8.97198
▁मगर	-8.97231
▁जबकि	-8.97239
▁लो	-8.9726
़	-8.9748
ले	-8.97484
▁6	-8.97511
▁public	-8.97542
at	-8.97631
▁never	-8.97926
▁रह	-8.97934
▁H	-8.9811
▁best	-8.98146
▁Minister	-8.9817
ू	-8.98321
▁पूर्ण	-8.98377
▁children	-8.98423
▁last	-8.98443
il	-8.98536
ur	-8.98605
▁धरती	-8.98649
▁My	-8.98702
▁human	-8.99065
▁business	-8.9913
ये	-8.99309
▁government	-8.9935
ma	-8.99368
▁दिए	-8.99465
f	-8.99486
▁Re	-8.9966
▁कंपनी	-8.99741
▁various	-8.99749
¥	-8.99974
nic	-9.00136
▁मूल	-9.00183
▁अतः	-9.00457
िया	-9.00498
▁आर्थिक	-9.00624
▁कृषि	-9.00743
▁मन	-9.00836
▁present	-9.01137
ta	-9.01247
▁within	-9.01257
▁होकर	-9.01289
▁देख	-9.01556
▁better	-9.0171
▁themselves	-9.01718
▁अज़ाब	-9.01787
▁days	-9.01919
▁evil	-9.02237
▁amount	-9.02424
▁इसकी	-9.0261
▁list	-9.02711
▁20	-9.02792
M	-9.02913
▁विश्वास	-9.03023
▁New	-9.0334
▁रखते	-9.0345
▁done	-9.03476
man	-9.03497
▁आने	-9.03508
▁इनकार	-9.03638
▁मूल्य	-9.03831
▁अवधि	-9.04125
▁जानकारी	-9.04148
▁body	-9.04251
▁ज्यादा	-9.04288
▁तुमसे	-9.04337
▁left	-9.04504
it	-9.04563
▁ग	-9.04925
ंग	-9.04959
▁खंड	-9.05054
▁लगभग	-9.05123
▁जनता	-9.05141
▁कार्यक्रम	-9.05197
▁छोड़	-9.0526
▁ई	-9.05415
▁समाज	-9.05422
ियां	-9.0549
▁small	-9.05606
▁times	-9.0568
▁क्यों	-9.05738
▁सारे	-9.05739
▁12	-9.05813
▁going	-9.05949
▁काफी	-9.05986
▁फ़ोल्डर	-9.06067
▁bring	-9.06506
▁लागू	-9.06607
▁education	-9.06855
▁विज्ञान	-9.07061
▁मेरा	-9.07072
▁http	-9.07106
▁मामले	-9.07195
▁जानता	-9.07236
▁आई	-9.0725
▁due	-9.07289
▁turn	-9.07415
▁वहां	-9.07472
▁अच्छे	-9.07655
▁प्रभाव	-9.07689
ism	-9.07689
को	-9.07747
▁समूह	-9.07768
यों	-9.08051
▁clear	-9.08416
▁चाहे	-9.08614
▁परिवर्तन	-9.08794
▁सिवा	-9.08889
le	-9.08896
▁आदेश	-9.08947
T	-9.09044
▁अभी	-9.09324
▁मिल	-9.09339
▁Book	-9.09348
▁दर	-9.09395
▁अच्छी	-9.09399
▁तू	-9.09506
▁process	-9.09678
▁पत्र	-9.0972
▁नीति	-9.09794
▁too	-9.09915
▁बराबर	-9.1005
टी	-9.10052
▁उद्योग	-9.10103
▁सामाजिक	-9.10119
▁others	-9.10339
▁जाएगी	-9.10515
▁प्रणाली	-9.10527
▁ली	-9.10587
▁स्थापित	-9.10616
गी	-9.10643
▁respect	-9.10681
▁आवश्यक	-9.10935
▁जमा	-9.10974
▁p	-9.11013
▁towards	-9.11014
▁द	-9.11033
▁available	-9.1122
na	-9.11425
▁जैसा	-9.11473
दा	-9.11518
▁call	-9.11593
▁आवश्यकता	-9.11627
▁large	-9.11642
▁law	-9.1166
▁Central	-9.11686
▁कुल	-9.11856
▁high	-9.11878
▁आया	-9.12008
://	-9.12056
▁One	-9.12168
▁प्रयास	-9.12269
¤3⁄4	-9.12566
▁दें	-9.12661
▁पी	-9.12671
▁x	-9.12785
फ	-9.1281
▁social	-9.13083
▁window	-9.13146
▁language	-9.13174
▁ऋण	-9.13275
▁कहीं	-9.13534
▁ब	-9.13616
2	-9.13759
▁value	-9.13781
▁जगह	-9.13799
▁सुरक्षा	-9.13888
▁full	-9.14233
▁जानते	-9.14254
▁उसको	-9.14358
▁heavens	-9.1447
▁क़ौम	-9.14641
▁मै	-9.14765
▁रहने	-9.14777
▁free	-9.14844
▁वक्त	-9.14892
▁उप	-9.14941
▁think	-9.151
▁कोर्इ	-9.15121
▁brought	-9.15257
▁put	-9.15266
▁पा	-9.15309
▁thou	-9.15354
▁जिससे	-9.15518
▁लोक	-9.15753
▁change	-9.15976
▁चुका	-9.15991
▁punishment	-9.16062
▁light	-9.16125
▁चार	-9.1615
ve	-9.16198
▁समान	-9.16212
पूर्ण	-9.16217
▁cause	-9.16315
▁बे	-9.1636
▁कु	-9.16443
▁अतिरिक्त	-9.16803
el	-9.16814
▁#44;	-9.16864
}	-9.17076
▁support	-9.17105
am	-9.17107
▁again	-9.17276
▁open	-9.17365
▁लेने	-9.17406
▁8	-9.17417
▁de	-9.17425
▁family	-9.17551
▁''	-9.17609
▁रखने	-9.17691
▁co	-9.17703
▁रहते	-9.17772
ul	-9.17981
section	-9.18005
▁service	-9.18029
▁चुके	-9.1808
▁hand	-9.18159
▁नया	-9.18456
▁आए	-9.18501
▁अंतर्गत	-9.18617
▁कहने	-9.18714
1	-9.18722
▁देशों	-9.18815
▁off	-9.18867
▁राशि	-9.18931
▁16	-9.18935
▁नए	-9.18947
▁तुमने	-9.18966
िका	-9.19098
▁स्वीकार	-9.19308
▁death	-9.19437
▁उत्पादन	-9.1945
▁अनुसंधान	-9.19537
▁Bhavan	-9.19607
▁kg	-9.19624
▁something	-9.19944
▁सही	-9.19952
▁old	-9.2
▁7	-9.20051
¥	-9.20053
▁राष्ट्र	-9.20058
फ़	-9.2032
N	-9.20747
▁far	-9.20786
▁मानव	-9.20819
▁might	-9.20843
F	-9.20972
▁यातना	-9.21075
▁विभाग	-9.21119
▁four	-9.21294
▁उद्देश्य	-9.21402
▁नही	-9.21514
▁food	-9.216
en	-9.21789
):	-9.21933
▁non	-9.22008
▁आकार	-9.22307
▁चल	-9.22532
▁matter	-9.22703
▁U	-9.22757
L	-9.2281
ive	-9.2283
▁whole	-9.22974
▁group	-9.23008
▁साल	-9.23027
▁क्षमता	-9.23079
▁data	-9.23155
पर	-9.23291
▁उ	-9.23356
▁true	-9.23388
▁भर	-9.23427
▁date	-9.2345
▁वालों	-9.23541
▁Rs	-9.23544
▁सदस्य	-9.23722
▁economic	-9.23729
▁सुधार	-9.23836
▁संपर्क	-9.24005
दार	-9.24014
▁परियोजना	-9.24034
▁सीमा	-9.24141
▁{	-9.24356
▁provided	-9.24405
▁area	-9.24473
▁m	-9.24527
▁परन्तु	-9.24548
▁उपधारा	-9.24621
▁जिन्हें	-9.24677
▁book	-9.24946
▁जान	-9.24969
▁नि	-9.25044
▁already	-9.25108
—	-9.25118
8	-9.25172
▁अधिकारी	-9.25178
▁आग	-9.25344
▁लाए	-9.25408
▁आकाश	-9.25438
▁सहयोग	-9.25464
▁समझ	-9.25503
▁परिणाम	-9.25546
▁वर्तमान	-9.25751
▁मूसा	-9.25815
▁together	-9.25873
▁night	-9.25945
▁return	-9.26059
▁खोज	-9.26071
▁सत्य	-9.26204
G	-9.26396
▁level	-9.26411
▁युद्ध	-9.26457
0	-9.26484
▁Me	-9.26515
▁few	-9.26547
▁वर्षों	-9.26559
▁यात्रा	-9.26604
▁सिर्फ	-9.26681
ll	-9.26789
▁कौन	-9.26804
▁gave	-9.26811
▁30	-9.26849
ch	-9.26864
▁दिल	-9.26923
▁केंद्र	-9.26954
▁At	-9.27108
▁interest	-9.27235
ent	-9.27283
est	-9.27317
▁Who	-9.27348
ाई	-9.27372
गा	-9.27411
▁love	-9.27511
▁countries	-9.27661
▁capital	-9.27664
▁provide	-9.27665
रे	-9.27792
ant	-9.27822
▁हुक्म	-9.27859
▁थीं	-9.27861
▁Indeed	-9.2791
▁fact	-9.27972
▁Your	-9.27976
▁शरीर	-9.28053
▁following	-9.28189
▁ask	-9.28215
▁signs	-9.28218
▁Rashtrapati	-9.28265
▁Delhi	-9.28333
▁services	-9.28363
▁न्यायालय	-9.28384
▁दूसरी	-9.28428
▁mind	-9.28462
▁प्रस्तुत	-9.28469
▁मिला	-9.28522
▁तुमको	-9.2854
▁विवरण	-9.28569
¤	-9.28597
डी	-9.28603
▁g	-9.28659
la	-9.28705
▁दृष्टि	-9.28709
¤°	-9.28715
▁path	-9.28809
▁व्यापार	-9.28825
▁बेहतर	-9.28854
▁type	-9.28994
▁above	-9.29009
▁V	-9.2913
▁project	-9.29133
बी	-9.29159
▁वहाँ	-9.29192
▁डर	-9.2922
▁self	-9.29236
te	-9.29276
▁ह	-9.29348
▁Those	-9.29369
▁little	-9.29501
R	-9.29507
▁मान	-9.29638
▁सभा	-9.2964
▁व्यवस्था	-9.29658
▁nation	-9.29691
▁national	-9.29748
▁रात	-9.29829
▁follow	-9.29844
ary	-9.29875
▁मध्य	-9.29988
ter	-9.30015
▁विधि	-9.30022
▁हमारा	-9.30042
▁action	-9.30061
▁worship	-9.30111
▁वास्तव	-9.30121
▁स्वास्थ्य	-9.30154
▁सा	-9.30176
is	-9.30197
▁based	-9.30198
▁himself	-9.30249
▁दिल्ली	-9.30256
कार	-9.30354
▁11	-9.3054
▁राम	-9.30689
▁i	-9.30729
▁इ	-9.30848
पी	-9.30927
▁स्थित	-9.30973
▁She	-9.30994
▁बनाए	-9.30998
▁प्रधानमंत्री	-9.3135
▁areas	-9.3139
ya	-9.31496
▁इतिहास	-9.31643
▁देगा	-9.31649
▁शब्द	-9.31724
वि	-9.31975
▁देखते	-9.31995
▁making	-9.32003
▁विश्वविद्यालय	-9.3209
▁local	-9.32099
एँ	-9.32244
जा	-9.32268
▁वास्ते	-9.32289
K	-9.32355
▁बच्चों	-9.32437
▁किस	-9.32506
▁जिनके	-9.32514
H	-9.3264
▁policy	-9.32656
▁विशिष्ट	-9.32792
▁वस्तु	-9.32841
▁words	-9.32914
▁पद	-9.33043
▁view	-9.33115
▁हाल	-9.33147
नि	-9.33165
▁निर्धारित	-9.33307
▁कैसे	-9.33333
▁निर्णय	-9.33368
▁अंत	-9.33402
ous	-9.3341
▁प्रदेश	-9.33448
▁until	-9.33504
भ	-9.33565
v	-9.33641
थ	-9.33665
▁having	-9.33719
▁hearts	-9.33731
▁ला	-9.33757
▁faith	-9.33799
▁(2)	-9.33881
▁वर्ग	-9.33923
▁अमेरिका	-9.34251
of	-9.34254
▁ओ	-9.34256
▁clause	-9.34303
um	-9.34385
▁still	-9.34414
▁9	-9.34438
▁able	-9.34496
▁sector	-9.3469
▁though	-9.34782
▁keep	-9.34843
li	-9.34905
▁25	-9.34952
▁हमेशा	-9.3496
ऋ	-9.34996
▁f	-9.35009
ti	-9.3503
▁काल	-9.351
▁seen	-9.35169
▁प	-9.3519
▁विकसित	-9.35234
▁around	-9.35282
▁1.	-9.35307
▁जिन्होंने	-9.35332
et	-9.35453
▁J	-9.35513
▁स्थानीय	-9.35604
▁society	-9.35734
▁members	-9.35767
▁took	-9.35815
▁सर	-9.35901
ra	-9.35909
▁तहत	-9.35929
▁संस्थान	-9.3599
▁बढ़	-9.36012
eth	-9.36384
कि	-9.36417
▁control	-9.36619
ate	-9.36703
▁17	-9.36718
▁political	-9.36823
▁तौर	-9.36962
ri	-9.3699
ry	-9.37214
E	-9.37305
▁whose	-9.37364
▁common	-9.37372
▁point	-9.37525
▁side	-9.37597
▁अनु	-9.37699
▁always	-9.37813
▁show	-9.37845
▁मांग	-9.37848
▁बदला	-9.37863
▁निर्धारण	-9.3812
▁विदेशी	-9.38299
में	-9.38401
▁भेजा	-9.38452
vi	-9.38539
▁अंतिम	-9.38787
▁कर्म	-9.38805
▁समाप्त	-9.38843
▁create	-9.38878
▁States	-9.38891
▁home	-9.38899
ियाँ	-9.38914
▁एस	-9.38933
▁nothing	-9.38952
▁believers	-9.38956
▁age	-9.39017
जो	-9.39108
▁therefore	-9.39159
▁thing	-9.39244
▁बल	-9.39344
ॉ	-9.39346
▁खेल	-9.39357
▁folder	-9.39477
▁wrong	-9.39683
घ	-9.39698
▁whether	-9.3978
▁परंतु	-9.39788
and	-9.39822
ै	-9.39888
▁छोटे	-9.39938
▁निश्चित	-9.40039
▁including	-9.40101
▁भूमि	-9.40113
▁भूमिका	-9.40313
ne	-9.40335
▁लगता	-9.40344
▁deeds	-9.40545
▁along	-9.40615
▁cent	-9.40656
▁Show	-9.40877
▁religion	-9.40957
▁छवि	-9.41002
वी	-9.41068
▁@	-9.41162
▁W	-9.41206
बा	-9.41298
▁ever	-9.41319
▁उदाहरण	-9.41444
▁ल	-9.41673
¥	-9.41738
▁further	-9.41738
▁किये	-9.41889
less	-9.41893
प्र	-9.41919
▁five	-9.42021
▁कल	-9.42048
▁निवेश	-9.42071
▁मंदिर	-9.42089
▁yet	-9.42162
▁address	-9.42176
▁संयुक्त	-9.42217
वे	-9.42242
▁रहता	-9.42277
▁नियंत्रण	-9.42357
▁निस्संदेह	-9.42359
▁house	-9.42367
▁0	-9.42378
▁बी	-9.42553
▁पाया	-9.42573
▁British	-9.42576
▁बंद	-9.426
ii	-9.42669
V	-9.42713
lo	-9.42765
▁मु	-9.42872
▁जिसकी	-9.42898
▁मौजूद	-9.42902
▁received	-9.42958
▁जन	-9.42987
▁equal	-9.43001
▁growth	-9.43024
▁प्रवेश	-9.43047
3	-9.43049
▁Please	-9.43165
▁आधारित	-9.43301
▁less	-9.4333
▁main	-9.43381
▁माना	-9.434
▁certain	-9.43453
▁लक्ष्य	-9.43458
▁Name	-9.43684
▁आम	-9.43719
▁nature	-9.43751
▁संघ	-9.43789
▁health	-9.4399
▁term	-9.44001
▁special	-9.44005
ँ	-9.44084
▁धन	-9.44087
▁total	-9.44131
▁डाल	-9.44157
▁अनुभव	-9.44269
▁निर्दिष्ट	-9.44363
▁जाओ	-9.44364
ति	-9.44399
▁आरंभ	-9.44408
▁नियम	-9.44578
▁war	-9.44613
▁became	-9.44693
▁संबंधी	-9.44768
▁वित्तीय	-9.44796
▁सहायक	-9.44824
▁leave	-9.44934
▁हिस्सा	-9.45113
▁त्रुटि	-9.45343
▁held	-9.45365
▁प्रथम	-9.4542
▁child	-9.45531
de	-9.45594
ia	-9.45635
नाज़िल	-9.4569
▁look	-9.45714
▁स्थापना	-9.45728
▁राह	-9.45748
▁मंत्रालय	-9.45798
▁head	-9.45959
▁heart	-9.4601
▁THE	-9.46081
▁Messenger	-9.46221
▁मनुष्य	-9.46347
▁Dr	-9.46567
▁लाख	-9.46683
रो	-9.46733
▁सिंह	-9.46827
▁14	-9.46866
▁वृद्धि	-9.46892
▁kind	-9.46928
▁next	-9.46968
un	-9.47108
ंड	-9.47211
▁After	-9.4723
▁संविधान	-9.47285
▁Most	-9.47297
▁translation	-9.47326
▁परिवार	-9.47388
▁समिति	-9.47549
age	-9.47625
▁tax	-9.47651
▁word	-9.47673
▁सक्रिय	-9.47814
We	-9.47856
optional	-9.47862
▁अध्ययन	-9.47875
▁probably	-9.48011
▁सका	-9.48066
▁money	-9.4824
▁पड़े	-9.48278
▁required	-9.48282
▁later	-9.48342
▁वो	-9.48351
▁Hindi	-9.48373
▁दिशा	-9.4845
▁लेते	-9.48561
▁जन्म	-9.48561
▁research	-9.48589
▁Singh	-9.48609
U	-9.48609
▁अनुमति	-9.48646
▁De	-9.4875
इस	-9.48798
▁Prime	-9.4886
▁मृत्यु	-9.49018
▁PRESIDENT	-9.49089
▁position	-9.491
▁second	-9.49192
▁प्रबंधन	-9.49211
▁ख	-9.4966
▁son	-9.49736
▁selected	-9.49786
▁पहली	-9.49788
▁अलावा	-9.49807
▁भाई	-9.49815
▁पिछले	-9.4991
▁t	-9.50099
▁possible	-9.50201
▁several	-9.50294
स्	-9.50397
ीकरण	-9.50508
ist	-9.50512
▁डाक	-9.50532
▁सहित	-9.50537
▁How	-9.50569
▁act	-9.50653
4	-9.50695
▁hands	-9.50701
▁रखता	-9.50842
▁प्रेम	-9.50846
z	-9.50926
▁industry	-9.50949
मी	-9.50974
▁कृपया	-9.50984
▁application	-9.50998
▁either	-9.51043
▁art	-9.51055
▁उत्पन्न	-9.51114
▁दिनों	-9.51159
▁प्रश्न	-9.51219
▁जहाँ	-9.51232
▁English	-9.51279
▁र	-9.513
▁समर्थन	-9.5142
▁खाता	-9.5144
▁foreign	-9.51478
▁भीतर	-9.5157
▁knows	-9.51686
▁error	-9.51729
W	-9.51793
▁पहचान	-9.52018
▁reward	-9.52086
▁सर्वर	-9.52101
▁Un	-9.52116
▁दृश्य	-9.52145
▁अन	-9.5216
▁occasion	-9.52185
▁जाएँ	-9.52208
iv	-9.52301
▁Some	-9.52306
amp	-9.52337
ad	-9.52357
▁thought	-9.52394
▁line	-9.52569
▁activities	-9.52582
▁भुगतान	-9.52586
ling	-9.52732
▁हक़	-9.52752
▁मंत्री	-9.52764
▁लें	-9.52785
टा	-9.52785
▁certainly	-9.52827
▁Ministry	-9.52925
▁pay	-9.52931
▁fire	-9.52975
▁राज	-9.53035
▁authority	-9.53069
▁read	-9.53256
▁सुनिश्चित	-9.53301
▁thee	-9.53325
▁example	-9.53355
स्ट	-9.53503
▁प्रशिक्षण	-9.53517
▁च	-9.53608
▁face	-9.53652
▁दक्षिण	-9.53737
▁आसमान	-9.53813
hi	-9.5387
▁बाजार	-9.53874
▁cost	-9.53951
▁मत	-9.53969
▁करोड़	-9.5398
▁University	-9.54131
▁कला	-9.54145
▁’	-9.5415
▁Go	-9.5423
▁डी	-9.54233
▁जांच	-9.54249
▁रोग	-9.54283
▁forth	-9.54382
▁प्रारंभ	-9.5453
▁फाइल	-9.54545
▁विंडो	-9.54652
▁itself	-9.54781
▁सत्ता	-9.548
▁ऊर्जा	-9.54815
▁2.	-9.54861
ठ	-9.54878
▁विस्तार	-9.54914
▁technology	-9.54963
हा	-9.55023
▁field	-9.55042
▁save	-9.55091
▁ज	-9.55151
▁क्रिया	-9.55182
▁production	-9.55202
▁एन	-9.55277
▁रख	-9.55289
▁financial	-9.55316
▁rate	-9.55321
क़	-9.55447
▁मात्रा	-9.55522
▁समस्या	-9.55543
▁पुनः	-9.5556
▁आदमी	-9.55579
▁योग्य	-9.5568
▁लिखा	-9.5571
▁went	-9.55802
▁young	-9.55903
▁बच्चे	-9.55906
▁anything	-9.55972
▁father	-9.5605
▁13	-9.56353
▁अभि	-9.56366
▁विकल्प	-9.56378
▁त	-9.56381
▁जाएँगे	-9.56434
▁इस्तेमाल	-9.56575
▁साहित्य	-9.56667
▁working	-9.56698
▁image	-9.56774
▁live	-9.56848
ऊण्श्छ्ष्	-9.56848
▁उनपर	-9.56861
▁सरकारी	-9.5687
▁current	-9.5687
ty	-9.5692
▁command	-9.56977
▁वापस	-9.57019
▁con	-9.57072
▁वेबसाइट	-9.57198
ated	-9.57266
▁बदल	-9.5733
▁purpose	-9.5763
▁history	-9.57715
▁quality	-9.57849
▁Court	-9.5791
▁near	-9.57914
▁जैसी	-9.57936
▁खाते	-9.57997
▁using	-9.58034
▁enter	-9.58065
▁scheme	-9.58164
▁अव	-9.58186
▁previous	-9.58207
▁provisions	-9.58246
मान	-9.58319
▁General	-9.58325
▁property	-9.58332
5	-9.58578
▁राज्यों	-9.58618
▁Z	-9.58631
▁market	-9.58698
▁established	-9.58715
▁understand	-9.58753
ting	-9.58777
ध	-9.58828
▁Pradesh	-9.58861
ful	-9.58874
▁शहर	-9.59003
▁सार्वजनिक	-9.59007
▁प्रकृति	-9.59234
▁जरूरत	-9.59246
▁send	-9.59328
सं	-9.59362
▁soul	-9.5938
▁चला	-9.59436
▁subject	-9.59505
▁रहो	-9.59531
▁मामलों	-9.59641
▁प्रगति	-9.59727
▁short	-9.59768
▁पूरे	-9.59859
▁major	-9.59866
▁course	-9.59877
ात्मक	-9.59964
▁हे	-9.59978
▁peace	-9.59988
▁therein	-9.5999
▁सन्	-9.60052
▁question	-9.60188
▁पाठ	-9.60192
▁future	-9.60268
▁कमी	-9.60328
▁Lo	-9.60333
ro	-9.60369
▁website	-9.60397
▁meeting	-9.60422
▁पूंजी	-9.60529
▁play	-9.6061
▁रिपोर्ट	-9.60614
▁सक्षम	-9.60618
▁अत्यन्त	-9.6063
▁necessary	-9.60785
▁संगठन	-9.60811
▁individual	-9.60898
▁started	-9.60988
▁behind	-9.61018
▁मालूम	-9.61098
▁Development	-9.61114
▁security	-9.61215
▁महान	-9.61277
(	-9.61401
▁भिन्न	-9.61526
▁यक़ीनन	-9.6157
▁१	-9.61626
▁रु	-9.61634
▁role	-9.61732
▁बातें	-9.61743
▁कोशिश	-9.61827
▁hath	-9.61871
▁court	-9.61885
▁mercy	-9.61905
▁उठा	-9.61937
ak	-9.6205
▁000	-9.62072
▁खुद	-9.62096
▁पृष्ठ	-9.62155
▁share	-9.62364
एक	-9.62367
ir	-9.62389
▁referred	-9.62431
▁संसद	-9.62479
▁By	-9.626
▁plant	-9.62691
▁दिखाएँ	-9.62705
▁देखने	-9.62807
▁related	-9.6282
▁Congress	-9.63011
▁व्यापक	-9.63198
▁greater	-9.63283
▁100	-9.63361
▁प्रकाश	-9.63543
▁आर	-9.63554
▁सदस्यों	-9.63567
▁शख्स	-9.63569
▁asked	-9.63603
▁ग्रामीण	-9.63613
▁House	-9.63629
RB	-9.638
ni	-9.63833
▁कांग्रेस	-9.63877
▁पश्चात	-9.63923
▁गांधी	-9.63924
ौ	-9.63945
▁जिनमें	-9.63966
▁Thus	-9.63979
▁effect	-9.64049
▁कानून	-9.6408
▁पेश	-9.64081
no	-9.64099
ha	-9.64258
▁got	-9.6428
▁बातों	-9.64298
▁higher	-9.64306
▁हैः	-9.64342
▁community	-9.64373
▁नदी	-9.64385
▁निकल	-9.64596
▁सामग्री	-9.64638
▁Or	-9.64678
▁रुप	-9.64684
▁उचित	-9.64699
▁works	-9.64744
up	-9.64766
▁whatever	-9.64766
▁institutions	-9.64782
▁key	-9.64789
▁written	-9.64883
▁परि	-9.64913
▁कहो	-9.64953
▁शासन	-9.65105
क्या	-9.65106
▁RRB	-9.65114
▁चुनें	-9.65172
▁city	-9.65225
▁revealed	-9.65257
ut	-9.65289
▁Hindu	-9.65492
▁once	-9.65499
▁guidance	-9.65532
▁students	-9.65571
तो	-9.6561
▁specified	-9.6564
▁बयान	-9.65699
▁एम	-9.65726
वर	-9.65775
▁living	-9.65778
▁24	-9.65867
▁dis	-9.65938
▁राजा	-9.65993
sh	-9.6604
ish	-9.66079
▁since	-9.6621
▁अप	-9.66217
im	-9.66237
▁आधुनिक	-9.66251
▁संस्था	-9.66269
▁गैर	-9.66285
▁text	-9.66313
▁इतना	-9.66341
▁bank	-9.66422
▁sense	-9.66424
▁files	-9.66481
▁केंद्रीय	-9.66491
▁paid	-9.66545
▁Union	-9.66564
▁sign	-9.66649
▁दिखाई	-9.66729
▁रक्षा	-9.66903
मे	-9.66957
▁महत्व	-9.66963
▁Now	-9.67002
इ	-9.67014
उ	-9.67046
▁पुरस्कार	-9.67065
co	-9.67096
▁देती	-9.67227
▁result	-9.6725
▁50	-9.67263
▁बाप	-9.67296
ine	-9.67304
▁months	-9.67395
▁Ram	-9.67398
▁With	-9.67575
▁Department	-9.67607
▁मुँह	-9.67657
▁सि	-9.67752
▁केन्द्र	-9.67812
▁21	-9.67975
▁(19	-9.68008
▁Al	-9.6801
▁गति	-9.6803
पन	-9.68048
▁trade	-9.6822
▁Committee	-9.68276
▁एक्स	-9.68299
▁List	-9.68305
▁soon	-9.68388
▁reason	-9.68465
▁निर्यात	-9.68656
▁*	-9.6873
▁doing	-9.6876
▁told	-9.68842
▁verily	-9.68847
▁story	-9.68867
▁sure	-9.68951
▁comes	-9.68956
▁c	-9.68974
▁रहेंगे	-9.69019
▁इनमें	-9.69098
▁server	-9.69148
ating	-9.69177
▁पहुंच	-9.69205
▁believed	-9.69212
ड़ा	-9.69236
▁वजह	-9.6924
▁पालन	-9.69254
म्	-9.69303
▁complete	-9.69355
▁force	-9.69408
▁Muslim	-9.69421
▁सुविधा	-9.69434
▁भविष्य	-9.69452
The	-9.69457
▁पहुँचा	-9.69507
▁साफ	-9.69533
▁प्रकट	-9.69634
▁चाहिये	-9.69693
▁seek	-9.69701
▁Open	-9.69713
▁n	-9.69738
▁रखो	-9.69742
▁योगदान	-9.69779
▁office	-9.698
▁औद्योगिक	-9.69818
▁पड़ा	-9.69835
▁Bank	-9.69887
ted	-9.69944
Name	-9.69968
▁सो	-9.69977
▁मर	-9.69995
▁श	-9.70026
▁eyes	-9.70052
▁बदले	-9.70123
▁पुस्तक	-9.70178
▁problem	-9.70179
▁फल	-9.70237
▁start	-9.7032
्र	-9.70335
▁till	-9.70353
▁19	-9.70362
se	-9.70372
▁गुण	-9.70456
▁computer	-9.70461
पुर	-9.70494
▁यू	-9.70512
ख़ुदा	-9.70514
▁स्वतंत्रता	-9.70637
▁Parliament	-9.70659
id	-9.707
▁शायद	-9.70774
बे	-9.7082
▁Could	-9.70853
▁Constitution	-9.71032
▁manner	-9.71188
▁building	-9.71336
वाद	-9.7136
▁संभव	-9.71376
▁निजी	-9.71431
▁progress	-9.71454
▁जवाब	-9.71485
▁फ़	-9.71566
▁किंतु	-9.71665
▁access	-9.71729
▁size	-9.7175
▁डिस्क	-9.71788
sa	-9.71884
▁चले	-9.719
▁बुरा	-9.71932
▁रखना	-9.72054
▁needs	-9.7206
▁Muslims	-9.72073
▁century	-9.72274
▁o	-9.72313
▁turned	-9.72417
▁लाल	-9.72445
तर	-9.72479
▁goods	-9.7261
▁international	-9.72682
▁आशा	-9.72696
▁आवेदन	-9.72705
▁why	-9.72802
▁network	-9.72826
▁however	-9.72902
▁बाल	-9.72917
rs	-9.72919
▁school	-9.72943
ंस	-9.73045
▁Y	-9.73048
▁31	-9.73059
▁blood	-9.73061
▁बने	-9.73139
▁party	-9.73198
▁basis	-9.73239
▁thy	-9.73404
▁निधि	-9.73426
▁चयनित	-9.7359
▁बोर्ड	-9.73614
▁बचा	-9.73634
▁रकम	-9.73653
▁सिर	-9.73693
▁लेखा	-9.73697
▁appointed	-9.73708
▁close	-9.73746
क्स	-9.73761
▁movement	-9.73783
▁Select	-9.73787
▁Mr	-9.73823
▁considered	-9.73852
▁mother	-9.73861
▁Council	-9.73973
▁energy	-9.73973
va	-9.74186
▁transfer	-9.74267
▁tree	-9.74281
ge	-9.74291
▁राय	-9.74308
!"	-9.74332
▁X	-9.74364
▁benefit	-9.74398
▁single	-9.74427
▁सह	-9.74472
▁अवश्य	-9.74478
▁pre	-9.74666
ance	-9.74743
html	-9.74787
▁समारोह	-9.74794
▁poor	-9.74841
▁problems	-9.7486
▁लागत	-9.74872
▁past	-9.74957
▁स्रोत	-9.74958
▁Surely	-9.74978
▁व्यक्तियों	-9.75045
▁purposes	-9.75094
▁remember	-9.75126
▁meet	-9.75149
▁Moses	-9.75203
pr	-9.7534
▁village	-9.75475
▁mode	-9.75687
▁ना	-9.75793
▁modern	-9.75876
▁कार्यालय	-9.75888
▁general	-9.76023
▁Verily	-9.76065
▁don	-9.76124
▁दशा	-9.76266
▁terms	-9.76277
▁changes	-9.7636
▁care	-9.76437
▁Ka	-9.76447
▁संगीत	-9.7646
▁आयोजित	-9.76463
▁पक्ष	-9.76495
▁parts	-9.76525
▁मुद्रा	-9.76568
▁अंग	-9.76573
▁संदर्भ	-9.76849
▁Information	-9.76914
वीं	-9.76919
▁Man	-9.77007
▁However	-9.77041
▁सफल	-9.77086
▁प्रभावित	-9.77177
▁Israel	-9.77269
▁ढंग	-9.77282
▁पांच	-9.77313
▁wish	-9.77454
▁उपकरण	-9.77497
▁often	-9.77531
for	-9.77535
▁Gandhi	-9.77632
▁assessee	-9.77646
▁डाला	-9.7768
▁गिर	-9.77707
▁वास्तविक	-9.77767
ah	-9.77769
▁मुक्त	-9.77811
▁पर्याप्त	-9.77984
▁books	-9.78019
▁Bengal	-9.78049
▁देंगे	-9.7811
▁बंगाल	-9.78115
be	-9.7812
▁मार	-9.78168
▁प्रकाशित	-9.78302
▁task	-9.78429
ce	-9.78444
▁पार	-9.78478
▁गुनाह	-9.78564
▁strong	-9.78582
▁religious	-9.78647
भी	-9.78706
▁तंत्र	-9.78746
▁समुदाय	-9.78806
▁America	-9.78866
▁प्रस्ताव	-9.78869
▁सफलता	-9.78984
दी	-9.79025
▁दूसरा	-9.79031
▁पहुँच	-9.79042
▁visit	-9.79158
▁passed	-9.7919
▁hard	-9.79251
▁persons	-9.79374
▁management	-9.79381
▁निर्धारिती	-9.79502
▁disbelieve	-9.79589
▁सेना	-9.7973
▁संरचना	-9.79776
▁नेटवर्क	-9.79784
आयतों	-9.79805
▁increase	-9.79832
▁Fire	-9.79954
िन	-9.80038
▁issued	-9.80114
▁wealth	-9.80116
▁air	-9.80178
▁sea	-9.80221
▁रोक	-9.80222
▁राजनीतिक	-9.80258
▁Add	-9.80288
▁none	-9.80334
▁न्याय	-9.80338
▁महिला	-9.80346
▁messages	-9.80484
▁allowed	-9.80575
▁ten	-9.80629
▁दिवस	-9.80635
▁हासिल	-9.80697
▁लाने	-9.80732
▁चुकी	-9.80799
▁INDIA	-9.80814
▁सम	-9.80815
गत	-9.80877
▁मा	-9.80907
▁thus	-9.80985
City	-9.81015
▁मुखर्जी	-9.81045
▁सकें	-9.81064
mukherjee	-9.81108
▁Muhammad	-9.81135
pranab	-9.8114
▁घटना	-9.81275
▁Ra	-9.81367
▁credit	-9.81394
▁प्रदर्शन	-9.81418
▁class	-9.81525
▁freedom	-9.81555
▁निम्नलिखित	-9.8165
▁culture	-9.81654
▁बनी	-9.81662
▁सुरक्षित	-9.81714
pur	-9.81799
▁region	-9.81848
▁महा	-9.81868
▁trust	-9.81871
▁चर्चा	-9.81924
▁आत्मा	-9.81943
▁condition	-9.8195
▁everything	-9.81969
हम	-9.82001
▁Us	-9.82035
▁source	-9.82055
ci	-9.82065
▁creation	-9.82068
▁natural	-9.82115
▁केन्द्रीय	-9.82121
▁taking	-9.82162
▁प्रमाण	-9.82319
▁post	-9.82405
tax	-9.82412
छ	-9.82419
▁gives	-9.82469
▁आयात	-9.82517
▁tell	-9.8254
ian	-9.82588
▁संरक्षण	-9.82615
he	-9.82636
▁संस्कृति	-9.82638
▁भावना	-9.82642
▁भारी	-9.82664
▁सेवाओं	-9.82761
▁efforts	-9.82913
tra	-9.82957
>	-9.82966
▁व्यक्त	-9.8298
▁contact	-9.82987
men	-9.83016
▁प्रमाणपत्र	-9.83069
रू	-9.83093
▁conditions	-9.83117
▁समझा	-9.83124
▁space	-9.83141
▁million	-9.8317
▁six	-9.83209
▁टी	-9.83345
▁यद्यपि	-9.83404
▁उत्पाद	-9.83414
▁सीधे	-9.83424
▁makes	-9.83428
हर	-9.83469
▁Be	-9.83495
त्व	-9.83566
▁आपकी	-9.8358
▁विशाल	-9.83665
▁लघु	-9.83714
▁23	-9.83722
▁really	-9.8373
▁निकट	-9.8374
स्त	-9.83809
▁रि	-9.83817
▁neither	-9.83843
▁assessment	-9.83846
di	-9.83862
ण्ड	-9.83865
▁Error	-9.83974
▁कहना	-9.83977
▁अल	-9.84073
▁alone	-9.84108
▁बाग़	-9.84146
▁सम्मान	-9.84174
▁वर्णन	-9.84187
go	-9.84191
▁Let	-9.84276
▁स्व	-9.84336
▁duty	-9.84401
▁डॉ	-9.84438
▁शब्दों	-9.84494
▁doubt	-9.84545
▁outside	-9.84549
▁Public	-9.84578
▁Institute	-9.84597
▁witness	-9.84661
har	-9.84689
▁according	-9.84692
▁कदम	-9.84778
▁बाज़	-9.84797
▁Such	-9.84909
▁least	-9.84927
▁बधाई	-9.84992
▁forward	-9.85033
▁matters	-9.85037
▁month	-9.85061
▁population	-9.85106
▁तरीके	-9.85157
▁आयोग	-9.85218
▁सम्मेलन	-9.85244
▁आता	-9.85258
▁...	-9.85393
वादी	-9.85423
w	-9.85524
▁सुन	-9.85575
▁developed	-9.85604
▁2000	-9.85625
▁मित्र	-9.85647
ji	-9.85662
▁संसाधन	-9.85772
▁early	-9.85809
▁followed	-9.85858
▁22	-9.85864
▁चयन	-9.85868
▁member	-9.85901
▁training	-9.85938
▁विरुद्ध	-9.85954
▁particular	-9.85964
▁Sa	-9.85999
ised	-9.86138
▁सेट	-9.86142
▁उपस्थित	-9.86144
▁Whether	-9.86166
वार	-9.86225
▁ones	-9.86232
▁कवि	-9.86241
▁पुरुष	-9.86303
▁loss	-9.8631
▁entire	-9.8635
पा	-9.86388
▁programme	-9.86431
▁छोटी	-9.86432
▁science	-9.8646
▁Prophet	-9.86465
▁बैठे	-9.86466
▁hear	-9.86645
▁य	-9.86662
र्स	-9.86713
▁कंप्यूटर	-9.86845
▁भोजन	-9.8692
▁व्यवहार	-9.86928
▁saying	-9.86946
▁File	-9.86959
▁रक्त	-9.86963
▁छोड़कर	-9.86985
▁जिला	-9.87018
▁literature	-9.87059
▁खर्च	-9.87062
▁अता	-9.87115
▁top	-9.87129
▁मि	-9.87177
▁disease	-9.87182
▁temple	-9.87216
▁अध्यक्ष	-9.87321
6	-9.87395
▁Su	-9.8742
▁स्कूल	-9.87451
▁प्राकृतिक	-9.87481
▁नमाज़	-9.87575
▁run	-9.87683
▁रखी	-9.8771
क्ष	-9.87772
▁dead	-9.87786
आख़िरत	-9.87795
▁बा	-9.87825
▁संपत्ति	-9.87868
▁woman	-9.88041
०	-9.88051
▁Is	-9.88267
▁अवस्था	-9.88272
▁पश्चिम	-9.88299
िश	-9.88302
▁Not	-9.88333
ंत	-9.88336
▁spirit	-9.88379
▁बताया	-9.88403
▁भ	-9.88409
▁add	-9.88422
▁प्रभावी	-9.88491
▁रखे	-9.8852
▁search	-9.88541
▁global	-9.88545
j	-9.88658
▁भेज	-9.88687
▁आते	-9.88702
▁28	-9.8882
ख़	-9.88859
वह	-9.88928
मन	-9.88942
da	-9.88991
▁ऑफ	-9.89042
पत्र	-9.89061
ies	-9.89124
▁बता	-9.89181
▁परीक्षा	-9.89191
▁function	-9.89254
▁write	-9.89284
▁रचना	-9.89326
▁चित्र	-9.89421
ts	-9.89476
▁80	-9.89534
▁capacity	-9.89583
▁Canno	-9.89589
▁opens	-9.89616
▁Board	-9.89619
▁जे	-9.89639
▁(3)	-9.8965
▁रे	-9.89688
▁provision	-9.89697
▁price	-9.89698
kar	-9.89708
▁बोल	-9.8976
▁वैज्ञानिक	-9.89791
▁अगले	-9.89836
▁pro	-9.89923
▁शक	-9.89947
▁People	-9.89961
ence	-9.89981
▁भाव	-9.90022
▁धार्मिक	-9.90138
▁Even	-9.90177
ार	-9.90303
¤2	-9.9033
▁लग	-9.90422
▁वित्त	-9.90507
▁गर्इ	-9.90525
▁3.	-9.90574
ally	-9.90607
▁दस	-9.90683
▁High	-9.90693
सर	-9.90695
▁payment	-9.90699
▁hope	-9.9072
▁half	-9.9073
▁बैठक	-9.90746
▁निम्न	-9.90862
▁प्रधान	-9.90951
▁पाने	-9.90979
▁रखें	-9.90989
▁ईश्वर	-9.90991
▁industrial	-9.90993
▁wife	-9.9101
▁ब्याज	-9.9105
▁Section	-9.9105
▁संशोधन	-9.9106
ever	-9.91069
▁fight	-9.91082
▁वीडियो	-9.91116
▁La	-9.91117
Y	-9.91136
ाव	-9.91162
▁समाधान	-9.91186
▁26	-9.91287
▁private	-9.91291
▁exchange	-9.91424
▁जोड़ें	-9.91433
कारी	-9.91452
▁बनाना	-9.91507
one	-9.91564
▁(%	-9.91623
▁संकेत	-9.91634
▁बन्दों	-9.91654
▁लेना	-9.91774
ात	-9.91817
▁फ	-9.91831
▁हालत	-9.91867
▁user	-9.91893
▁अधिकारियों	-9.91943
▁गलत	-9.91995
करण	-9.92027
▁खड़े	-9.9211
▁eat	-9.92143
▁saw	-9.92145
▁अपेक्षा	-9.92205
▁include	-9.92216
ड़े	-9.92284
कर्ता	-9.92334
▁receive	-9.92343
▁आपका	-9.9236
ol	-9.92512
▁report	-9.92595
▁angels	-9.92613
▁चिकित्सा	-9.9262
▁आंदोलन	-9.92635
▁seven	-9.9266
▁mankind	-9.92729
tic	-9.92739
▁मिली	-9.92758
ंक	-9.92822
▁गुणवत्ता	-9.92838
▁भू	-9.92869
▁lost	-9.92976
▁firm	-9.93078
ka	-9.9311
ru	-9.93151
▁मिलता	-9.93152
▁प्राचीन	-9.93202
▁उन्हीं	-9.93212
न्	-9.93271
▁Mukherjee	-9.93314
▁खोल	-9.93347
▁तुमपर	-9.93381
▁try	-9.9339
▁जल्दी	-9.93421
line	-9.93447
▁27	-9.935
▁संस्थानों	-9.9351
▁resources	-9.93606
▁ground	-9.93612
▁जाये	-9.9363
▁Sabha	-9.9373
ाना	-9.93779
▁rule	-9.93859
▁accept	-9.93865
ang	-9.93893
ise	-9.93919
▁मजबूत	-9.94001
▁समझते	-9.94021
▁almost	-9.94035
▁पि	-9.94053
▁अधिकांश	-9.94078
wa	-9.94094
▁शैली	-9.94146
▁Islam	-9.94158
▁deny	-9.9417
मु	-9.942
▁sun	-9.94201
▁writing	-9.94226
ana	-9.94363
▁continue	-9.94437
▁spread	-9.94458
टे	-9.94472
▁हिदायत	-9.94498
▁फेर	-9.94521
▁experience	-9.94533
▁तुममें	-9.94537
press	-9.94538
▁ज़रूर	-9.94575
▁torment	-9.94578
▁w	-9.94623
▁अति	-9.9463
▁प्रणब	-9.94733
▁earlier	-9.94759
▁निकाल	-9.9476
op	-9.94771
▁आती	-9.94786
▁तारीख	-9.94819
▁kept	-9.94906
▁हिन्दी	-9.94918
▁mail	-9.94957
▁Co	-9.95054
▁0.	-9.95063
▁40	-9.95089
ष	-9.95091
न्द	-9.95177
▁brother	-9.95177
▁संसार	-9.95206
▁real	-9.95214
▁दल	-9.95226
▁करनी	-9.95342
▁Merciful	-9.95343
▁खरीद	-9.9537
▁across	-9.95379
▁raised	-9.95403
▁Commission	-9.95441
जन	-9.95466
यह	-9.9547
▁सोच	-9.95495
▁rights	-9.95574
▁material	-9.95734
▁क्षमा	-9.9577
▁strength	-9.95926
▁sound	-9.9596
▁operation	-9.95972
▁मालिक	-9.95975
▁demand	-9.96005
▁जरूरी	-9.96012
▁रहती	-9.96178
▁environment	-9.96262
ृ	-9.96293
▁St	-9.96334
▁district	-9.96365
िल	-9.96385
▁lead	-9.96395
▁enough	-9.9641
बार	-9.96483
▁पुलिस	-9.96523
▁color	-9.96579
▁निर्मित	-9.96581
▁अंतर	-9.9659
▁मानते	-9.96616
▁बहु	-9.96647
▁सीमित	-9.96757
▁पड़	-9.96775
▁character	-9.96801
▁third	-9.96813
▁structure	-9.96851
ान	-9.9686
▁रहना	-9.96904
▁दिलों	-9.96949
▁क़सम	-9.9697
▁lot	-9.96972
साथ	-9.97007
गे	-9.97051
▁शैतान	-9.97068
▁big	-9.97091
▁अनिवार्य	-9.97111
▁hold	-9.97112
▁खा	-9.97126
▁products	-9.97132
▁guide	-9.97152
▁bear	-9.97179
▁पश्चात्	-9.97181
▁सात	-9.97262
▁ब्रिटिश	-9.97264
▁cases	-9.97287
▁speak	-9.97306
▁West	-9.97324
iii	-9.9735
▁जाति	-9.97399
▁Na	-9.97478
▁desire	-9.97524
▁छोटा	-9.97526
▁investment	-9.97717
▁ensure	-9.97731
▁Republic	-9.97751
▁शांति	-9.97855
तम	-9.97903
▁सारी	-9.97926
▁farmers	-9.97945
कों	-9.9795
▁बिल्कुल	-9.98109
▁विरोध	-9.98141
▁plan	-9.98197
▁करनेवालों	-9.98201
▁इबराहीम	-9.98266
▁East	-9.98277
खा	-9.98376
▁issue	-9.98383
▁कार्यों	-9.98408
▁तुलना	-9.98432
यू	-9.98485
▁below	-9.98542
यां	-9.98689
▁page	-9.98702
▁astray	-9.98768
ized	-9.98897
अपने	-9.98945
AL	-9.98955
▁लौट	-9.98957
▁South	-9.99016
▁शताब्दी	-9.99047
▁एशिया	-9.99122
▁लिख	-9.99127
▁projects	-9.99135
▁k	-9.99265
▁पर्यावरण	-9.99317
▁आपने	-9.99343
ee	-9.99657
रि	-9.99695
▁United	-9.99753
▁किसानों	-9.99781
ization	-9.99799
▁rest	-9.99857
▁remain	-9.99866
▁carried	-9.99873
▁शेष	-9.99958
▁personal	-10.0002
▁गो	-10.0009
▁failed	-10.001
▁Use	-10.0012
▁घोषणा	-10.0018
▁सच्चे	-10.0027
▁Asia	-10.003
▁कहेंगे	-10.0034
▁समुद्र	-10.0034
▁rich	-10.0041
▁guided	-10.0047
▁आत्म	-10.0051
▁April	-10.0053
▁promise	-10.0055
▁पे	-10.0056
▁decided	-10.0061
▁तरफ़	-10.0062
▁states	-10.0068
▁शीघ्र	-10.0073
▁व्यक्तिगत	-10.008
▁महीने	-10.008
▁शुल्क	-10.0082
▁rural	-10.0087
▁प्रदर्शित	-10.0087
फिर	-10.0092
▁कठिन	-10.0094
▁खुलती	-10.0096
▁अत्यंत	-10.0103
▁सुना	-10.0103
led	-10.0105
▁institution	-10.0107
▁From	-10.0112
▁मौजूदा	-10.0117
▁check	-10.0124
hu	-10.0131
दूसरे	-10.0132
▁video	-10.0133
▁श्रेणीः	-10.0134
▁god	-10.0136
▁सम्बन्ध	-10.014
▁prepared	-10.0145
▁विचारों	-10.015
▁low	-10.0155
▁success	-10.0157
▁संघर्ष	-10.0161
▁reach	-10.0163
वान	-10.0166
▁व्यय	-10.0167
▁हा	-10.0168
▁दिखा	-10.017
▁प्रयोजनों	-10.0174
▁move	-10.0176
▁relating	-10.0177
▁decision	-10.018
शा	-10.0183
▁approach	-10.0183
▁अप्रैल	-10.0188
▁direct	-10.0194
▁economy	-10.0196
▁विंडों	-10.0202
▁says	-10.0203
▁पैग़म्बर	-10.0205
▁music	-10.021
▁inter	-10.021
▁सम्मिलित	-10.0212
▁ख़बर	-10.0216
▁मुस्लिम	-10.0217
▁Have	-10.022
▁प्रोग्राम	-10.0222
▁May	-10.0228
ial	-10.0229
▁produce	-10.023
▁अंग्रेजी	-10.0233
▁front	-10.0235
▁डेटा	-10.0238
▁उल्लेख	-10.024
▁Sanskrit	-10.0245
त्र	-10.0246
ot	-10.025
▁behalf	-10.0255
▁लगी	-10.0259
▁सौ	-10.0261
▁forms	-10.0262
▁नगर	-10.0264
▁disbelievers	-10.0279
▁बढ़ाने	-10.028
▁गिरोह	-10.0281
▁सामान	-10.0283
▁इस्लाम	-10.0288
बद्ध	-10.0288
▁original	-10.0294
▁स्थायी	-10.0294
▁प्रतीक	-10.0304
▁provides	-10.0305
▁situation	-10.0311
▁हस्ताक्षर	-10.0315
▁सदैव	-10.0318
▁Their	-10.0333
▁युग	-10.0343
▁built	-10.0352
▁वायु	-10.0359
▁अंदर	-10.0362
▁हित	-10.0364
con	-10.0365
▁stage	-10.0368
▁status	-10.037
▁इंडिया	-10.0376
per	-10.038
▁stand	-10.0382
▁युवा	-10.0384
▁difficult	-10.0393
▁TO	-10.0393
▁योग	-10.0397
▁feel	-10.0402
▁lower	-10.0405
▁actually	-10.0409
▁लगाया	-10.0413
▁prayer	-10.0417
▁issues	-10.0425
▁हृदय	-10.0425
me	-10.0427
ja	-10.0429
ow	-10.0431
र्	-10.0433
▁test	-10.0442
▁righteous	-10.0461
▁विवाह	-10.0463
ाँ	-10.0467
▁रहेगा	-10.0469
लि	-10.047
▁तेजी	-10.0472
lu	-10.048
▁birth	-10.0481
▁मार्च	-10.0482
▁published	-10.0485
▁मिट्टी	-10.0486
▁Technology	-10.0487
▁Pranab	-10.049
▁crore	-10.0491
मय	-10.0492
▁Pa	-10.0494
▁whoever	-10.0501
▁Chief	-10.0508
▁संस्कृत	-10.0514
▁जिसको	-10.0516
po	-10.0517
▁पथ	-10.0518
▁पहला	-10.0518
▁औ	-10.0522
▁style	-10.0522
क्	-10.0522
▁एल	-10.0536
▁rules	-10.0538
▁अनुच्छेद	-10.054
▁leaders	-10.0543
▁सख्त	-10.0545
▁places	-10.0546
tu	-10.0552
▁भली	-10.0552
▁आयु	-10.0556
▁भूल	-10.0556
▁पड़ता	-10.056
▁study	-10.0567
▁car	-10.0568
▁Income	-10.0568
▁हालाँकि	-10.0571
▁निशानियाँ	-10.0575
▁दृष्टिकोण	-10.0579
▁similar	-10.0588
▁व्य	-10.0596
▁lives	-10.0603
▁नये	-10.0604
▁परिषद	-10.061
▁happy	-10.0624
बाहरी	-10.0625
▁साधारण	-10.0628
यें	-10.0632
aà	-10.0634
▁भा	-10.0651
▁relations	-10.0651
▁बढ़ावा	-10.0654
▁besides	-10.0654
▁नियत	-10.0655
जे	-10.0657
tion	-10.0661
▁चि	-10.0667
▁सत्र	-10.0668
▁en	-10.0671
▁चलते	-10.0671
▁unbelievers	-10.0676
9	-10.0678
▁पकड़	-10.0684
▁physical	-10.0686
▁Save	-10.0688
▁अर्थव्यवस्था	-10.0699
▁तेल	-10.0699
▁evidence	-10.0706
11	-10.0706
▁माँ	-10.0708
land	-10.0711
रूप	-10.0713
▁especially	-10.0714
▁details	-10.0724
▁तर्क	-10.073
▁हवा	-10.0737
ph	-10.0739
▁letter	-10.0746
▁scale	-10.0746
▁Commissioner	-10.0748
▁लोड	-10.075
▁river	-10.0751
▁पिता	-10.0753
ities	-10.0757
▁बढ़ा	-10.0757
qu	-10.0769
▁ईसा	-10.0772
▁groups	-10.0773
▁opportunity	-10.0776
▁उपयुक्त	-10.0776
गो	-10.078
▁मिलने	-10.0781
▁बिल	-10.0788
▁news	-10.0789
हार	-10.079
रु	-10.0795
▁friends	-10.08
▁flow	-10.0803
▁विधान	-10.0806
▁दर्शन	-10.0806
▁wide	-10.0809
▁coming	-10.0812
mi	-10.0814
अल्लाह	-10.082
▁रुपये	-10.0826
▁प्रशासन	-10.0828
▁accepted	-10.0829
▁सांस्कृतिक	-10.0829
▁इनके	-10.0842
▁नसीहत	-10.0842
▁हानि	-10.0846
ेगा	-10.0847
▁ता	-10.0848
ूर	-10.0851
▁values	-10.0866
▁वैश्विक	-10.0867
▁rain	-10.0869
▁poet	-10.087
▁ex	-10.0873
रों	-10.0875
्त	-10.0877
म्ब	-10.0878
यी	-10.0881
डे	-10.0881
▁तकनीकी	-10.0888
pa	-10.0888
ंट	-10.0902
▁document	-10.0902
▁वन	-10.0903
▁संभावना	-10.0903
डा	-10.0906
▁सिद्ध	-10.0909
▁दु	-10.0912
▁providing	-10.0913
▁Ha	-10.0914
▁आपस	-10.0916
▁1,	-10.0916
▁apply	-10.0926
▁morning	-10.0926
टर	-10.0927
▁लेता	-10.0931
हरगिज़	-10.0934
▁देखें	-10.0935
▁60	-10.0935
▁पाक	-10.0936
▁वस्तुओं	-10.094
▁simple	-10.0943
▁रोजगार	-10.0947
▁लि	-10.095
▁fast	-10.0952
▁श्रेणी	-10.0954
],	-10.0962
▁देखो	-10.0966
▁सलाह	-10.0969
▁Category	-10.0969
▁खाद्य	-10.0971
▁concerned	-10.0971
▁अपील	-10.0975
▁बनाकर	-10.0983
काल	-10.0989
▁During	-10.0989
▁पत्थर	-10.099
▁अंतरराष्ट्रीय	-10.0994
▁Where	-10.0996
▁increased	-10.1006
▁caused	-10.1009
▁facilities	-10.101
▁default	-10.1022
ियन	-10.1024
तुम	-10.1026
▁cultural	-10.1029
si	-10.1031
▁giving	-10.1033
▁wrote	-10.1036
▁इच्छा	-10.1037
▁answer	-10.1047
▁निर्भर	-10.1047
▁क्षेत्रीय	-10.1047
▁method	-10.1047
▁महिलाओं	-10.1052
▁easy	-10.1053
▁po	-10.1055
▁हल	-10.1057
▁मेल	-10.1057
▁sum	-10.1062
▁die	-10.1063
▁reached	-10.1064
External	-10.1066
▁जिनका	-10.1067
वें	-10.1068
▁बनाई	-10.1072
▁ma	-10.1075
ग़	-10.1079
मो	-10.1082
आर	-10.1082
▁जहन्नुम	-10.1089
▁घरों	-10.109
▁International	-10.1098
▁सिस्टम	-10.1102
शी	-10.1107
ba	-10.1113
do	-10.1115
▁Service	-10.1115
▁शीर्ष	-10.1117
▁सरल	-10.1117
▁central	-10.112
▁प्रयासों	-10.1124
▁विनिर्दिष्ट	-10.1125
nd	-10.1125
▁बुरी	-10.1133
▁event	-10.1146
▁North	-10.1146
▁infrastructure	-10.1147
▁While	-10.1151
▁cut	-10.1156
ure	-10.1166
▁प्रसिद्ध	-10.1167
▁stone	-10.1168
end	-10.1174
▁legal	-10.1177
१	-10.1179
▁असफल	-10.1181
▁नियुक्त	-10.1186
▁29	-10.1193
्‍	-10.1197
▁गांव	-10.1201
▁दिये	-10.1202
▁st	-10.1206
ंद	-10.1208
▁sin	-10.1209
ative	-10.1211
▁अधिकतर	-10.1211
▁पद्धति	-10.1214
▁दिखाया	-10.1223
ium	-10.1224
▁began	-10.1224
▁Hereafter	-10.1225
▁अधिकतम	-10.1226
▁Officer	-10.1227
▁idea	-10.123
▁prescribed	-10.1234
all	-10.1234
▁स्वरूप	-10.1235
▁विस्तृत	-10.1236
ari	-10.1239
▁thereof	-10.1246
▁गुना	-10.1251
▁स्वामी	-10.1251
ऊ	-10.126
▁प्रत्यक्ष	-10.1263
▁पस	-10.1265
▁version	-10.1269
इन	-10.1269
▁l	-10.1273
▁बिजली	-10.1277
▁instead	-10.1281
▁अरब	-10.1288
▁कुंजी	-10.1291
▁harm	-10.1291
▁rather	-10.1299
▁बीमा	-10.13
▁belongs	-10.1304
▁खोलें	-10.1306
▁लेखक	-10.131
न्न	-10.1316
▁notice	-10.1322
▁becomes	-10.1328
▁संस्करण	-10.1329
7	-10.1329
▁March	-10.1339
▁copy	-10.134
▁संग्रह	-10.1345
▁समक्ष	-10.1347
▁वा	-10.1351
ड़ी	-10.1352
▁programmes	-10.1354
▁2005	-10.1356
▁मार्गदर्शन	-10.1356
शन	-10.1358
तः	-10.1358
दर	-10.1359
▁unless	-10.1364
झ	-10.1367
मैं	-10.1368
▁जीव	-10.1371
▁justice	-10.1379
▁कहानी	-10.138
▁इतनी	-10.1381
▁बावजूद	-10.139
▁record	-10.1393
▁पार्टी	-10.1394
▁2007	-10.1394
▁प्रयुक्त	-10.141
▁specific	-10.1414
▁led	-10.1417
–	-10.1419
▁आयोजन	-10.1422
▁शक़	-10.1423
▁yourselves	-10.1423
▁पीठ	-10.1424
pi	-10.1426
▁निगम	-10.1431
▁program	-10.1433
▁कविता	-10.1433
▁instrument	-10.1438
▁beyond	-10.1439
▁cast	-10.1453
▁base	-10.1454
▁device	-10.1455
▁lie	-10.1455
▁जि	-10.1458
िए	-10.1459
चा	-10.1463
▁बि	-10.1465
▁मौसम	-10.1466
ize	-10.1467
▁importance	-10.1468
▁कटौती	-10.147
▁अनुप्रयोग	-10.1477
▁हालांकि	-10.1486
▁shown	-10.1487
बल	-10.1501
▁आदर्श	-10.1505
▁beginning	-10.1506
▁World	-10.1507
▁नागरिक	-10.1509
▁संचार	-10.1511
▁क़यामत	-10.152
र्क	-10.1521
os	-10.1525
▁Can	-10.1532
▁responsible	-10.1537
▁वी	-10.1543
''	-10.1544
▁जाँच	-10.1546
▁imp	-10.1549
▁sky	-10.155
▁हटा	-10.1554
ill	-10.1558
▁ways	-10.1559
▁निरंतर	-10.1564
▁password	-10.1569
▁करनेवाला	-10.1571
▁परस्पर	-10.1573
▁2006	-10.1573
म्प	-10.1578
▁पश्चिमी	-10.1599
▁fund	-10.1604
▁सबको	-10.1606
▁उपबंध	-10.1608
▁अभिलेख	-10.1614
▁king	-10.1615
▁Africa	-10.1619
▁Project	-10.1623
▁agreement	-10.1627
▁placed	-10.1633
सन	-10.1647
▁स्पष्टीकरण	-10.1648
oc	-10.1649
▁सामना	-10.165
▁ancient	-10.1651
▁उपचार	-10.1656
▁वार्षिक	-10.1657
▁bar	-10.166
▁returned	-10.1661
अपनी	-10.1664
▁रोज़ी	-10.1665
▁object	-10.1665
▁y	-10.1667
▁Hell	-10.1667
▁खाली	-10.1675
यर	-10.1679
▁मी	-10.1682
▁खो	-10.1683
min	-10.1687
▁loan	-10.1693
▁pass	-10.1693
राज	-10.1694
ही	-10.1696
▁fall	-10.1696
▁v	-10.1719
▁oil	-10.173
ton	-10.1732
▁पसंद	-10.1732
▁lo	-10.1733
▁remove	-10.1736
▁code	-10.1736
▁माता	-10.1737
▁popular	-10.1744
▁4.	-10.1749
This	-10.1751
▁break	-10.1752
ुल	-10.1753
▁View	-10.1763
▁वायदा	-10.1764
▁spiritual	-10.1764
▁Centre	-10.1764
▁लिखने	-10.1768
▁heaven	-10.1777
▁छ	-10.178
ab	-10.1785
▁सरकश	-10.1787
▁गतिविधियों	-10.1787
▁वातावरण	-10.1791
▁regard	-10.1793
्‍य	-10.1795
▁patient	-10.1798
▁पूर्ववर्ष	-10.1801
फा	-10.1802
▁आसान	-10.1802
▁claim	-10.1806
हीन	-10.1809
▁मिलकर	-10.1813
▁सच	-10.1817
सब	-10.1817
वर्ती	-10.1818
▁सकेगा	-10.1826
▁Failed	-10.1828
▁potential	-10.1832
▁नाटक	-10.1834
▁effective	-10.1834
▁lakh	-10.1838
▁Of	-10.1839
▁पुनर्	-10.184
ga	-10.1846
▁grant	-10.1847
▁names	-10.1848
▁बख्श	-10.185
एन	-10.185
ाल	-10.1851
▁languages	-10.1851
▁यंत्र	-10.1852
▁विदेश	-10.1854
▁व्यवसाय	-10.1854
▁झूठ	-10.1856
▁मिले	-10.1856
▁उम्मीद	-10.1862
▁treatment	-10.1865
▁Are	-10.1867
▁खड़ा	-10.187
रण	-10.1875
▁appeal	-10.1878
▁rivers	-10.1878
▁meaning	-10.1883
▁display	-10.1886
▁lies	-10.1889
▁heard	-10.189
▁मुसलमानों	-10.1891
▁Education	-10.1892
▁setting	-10.1892
ac	-10.1894
▁develop	-10.1897
▁गवाह	-10.1897
▁हिन्दू	-10.1902
▁कार्ड	-10.1902
▁understanding	-10.1903
वालों	-10.1907
▁हाथों	-10.1911
▁जोर	-10.1914
▁चलता	-10.1919
▁Under	-10.1925
▁बुद्धि	-10.1926
▁ग्रहण	-10.1927
▁Scheme	-10.1945
▁round	-10.1947
▁घ	-10.1954
िस	-10.1957
▁नियमों	-10.1959
▁War	-10.196
▁addition	-10.1963
▁तिथि	-10.1965
▁range	-10.1969
▁करनेवाले	-10.197
▁accounts	-10.1971
शील	-10.1977
▁देव	-10.198
▁नियमित	-10.1988
▁बन्द	-10.1988
ियो	-10.1992
▁article	-10.1992
▁connection	-10.1993
▁Research	-10.1995
▁Con	-10.1995
▁पदार्थ	-10.1999
▁Evolution	-10.1999
यन	-10.2003
▁स्वागत	-10.2004
▁क्लिक	-10.2006
▁quite	-10.2006
▁servants	-10.201
▁hundred	-10.2011
▁unit	-10.2016
▁collection	-10.202
▁कर्मचारियों	-10.2021
▁रहें	-10.2024
▁eye	-10.2024
▁2014	-10.2028
▁संपूर्ण	-10.2032
ास	-10.2036
▁white	-10.2036
▁भेजे	-10.204
ical	-10.2044
▁महसूस	-10.2051
▁मतलब	-10.2051
▁हद	-10.2054
चे	-10.2055
▁gone	-10.2056
▁प्राप्ति	-10.2059
▁Quran	-10.2062
ik	-10.2062
▁added	-10.2065
▁स्त्री	-10.2066
▁सज़ा	-10.2068
▁अनुवाद	-10.2068
▁दावा	-10.207
▁consider	-10.2072
▁existing	-10.2076
▁नामक	-10.2079
▁dance	-10.2092
▁folk	-10.2095
▁चुनाव	-10.2096
▁भला	-10.2098
▁मोड	-10.2098
▁दस्तावेज	-10.21
14	-10.2109
▁यूरोप	-10.211
▁परीक्षण	-10.2111
▁parents	-10.2115
▁मिशन	-10.2116
▁सर्व	-10.2117
▁तय	-10.2118
▁deep	-10.2119
▁practice	-10.213
▁Sri	-10.2134
mo	-10.2141
▁कठोर	-10.2145
ud	-10.2146
▁खाने	-10.2146
▁speech	-10.2147
▁अधि	-10.2151
▁takes	-10.2152
▁thousand	-10.2154
▁सदन	-10.2158
▁सिद्धांत	-10.2159
▁अभियान	-10.216
▁existence	-10.216
▁Many	-10.2174
▁भय	-10.2177
▁बोझ	-10.218
▁35	-10.2184
नाथ	-10.2186
▁१९	-10.2188
▁certificate	-10.2197
▁activity	-10.2198
▁com	-10.2202
▁अफ्रीका	-10.2205
¤¤	-10.2206
ip	-10.2213
▁हाँ	-10.2219
▁पु	-10.222
▁झुठलाया	-10.2223
स्थ	-10.2225
ज़ा	-10.2226
▁format	-10.223
ie	-10.2231
▁जोड़	-10.2236
▁कार्रवाई	-10.2236
▁हिसाब	-10.2236
▁अवैध	-10.2241
▁basic	-10.2248
▁citizens	-10.225
▁ग्राम	-10.2252
▁direction	-10.2252
▁asset	-10.2254
▁शिव	-10.2262
न्त	-10.227
▁डि	-10.2283
ढ़	-10.2284
▁agricultural	-10.2284
▁Folder	-10.2289
▁forgive	-10.2295
▁देकर	-10.2297
▁कारबार	-10.23
▁अक्सर	-10.2304
▁इन्हें	-10.2309
▁export	-10.2309
ची	-10.231
▁employment	-10.2316
▁drink	-10.2317
▁ख़र्च	-10.2318
▁2001	-10.2323
▁Search	-10.2326
ca	-10.2327
▁शुभकामनाएं	-10.2328
▁मात्र	-10.2335
▁पाकिस्तान	-10.2338
▁item	-10.2338
J	-10.2339
▁presented	-10.234
▁भरोसा	-10.2342
▁सप्ताह	-10.2342
▁learn	-10.2343
ver	-10.2344
▁डे	-10.2346
▁आयुक्त	-10.2348
▁charge	-10.2349
▁इबादत	-10.2351
▁black	-10.2352
▁जीवित	-10.2355
▁सहेजें	-10.2356
▁goes	-10.2361
▁तत्व	-10.237
▁friend	-10.2374
▁तौबा	-10.2376
सु	-10.2378
▁बनाएँ	-10.2379
▁concerning	-10.2381
▁powers	-10.2383
ring	-10.2386
bar	-10.2396
▁disc	-10.24
▁female	-10.2406
▁जिनकी	-10.241
▁दायित्व	-10.2412
▁बह	-10.2413
▁समस्याओं	-10.2416
बर	-10.2419
▁संकल्प	-10.242
bi	-10.2421
▁vision	-10.2421
▁प्रसन्नता	-10.2423
▁पेज	-10.2423
▁कल्पना	-10.2425
▁जाएं	-10.2425
▁चरण	-10.2433
▁Create	-10.2436
▁जनवरी	-10.244
▁अंश	-10.2446
▁बाहरी	-10.2446
▁अंतर्राष्ट्रीय	-10.2447
▁उत्तम	-10.2453
▁शख़्श	-10.2459
कल	-10.2462
▁खाना	-10.2464
▁felt	-10.2464
▁getting	-10.2473
▁गंभीर	-10.2478
▁दीन	-10.2484
▁plus	-10.2484
▁knew	-10.2484
ig	-10.2485
▁build	-10.2492
▁बढ़कर	-10.2494
▁running	-10.2499
▁learning	-10.25
▁खेती	-10.2501
▁parties	-10.2502
▁विद्युत	-10.2503
nu	-10.2505
▁खूब	-10.2505
▁content	-10.2508
▁कितने	-10.2514
▁चलो	-10.2514
▁मिलती	-10.2516
▁aware	-10.2524
ner	-10.2524
▁Therefore	-10.2527
▁क़	-10.2529
▁please	-10.2532
▁eight	-10.2533
▁opinion	-10.2533
▁wise	-10.2536
२	-10.2546
▁wanted	-10.2552
ीन	-10.2553
▁fixed	-10.2562
▁option	-10.2563
▁Resurrection	-10.2563
▁लगाने	-10.2565
12	-10.2568
au	-10.2573
▁इजरायल	-10.2576
▁Krishna	-10.2583
▁गणराज्य	-10.2583
▁2002	-10.2588
▁उपाय	-10.2588
▁गीत	-10.2589
▁verses	-10.2591
अलग	-10.2591
▁youth	-10.2594
▁खुशी	-10.2594
▁भलाई	-10.2601
▁पुराने	-10.2603
▁पंक्ति	-10.2604
एम	-10.2605
▁वितरण	-10.2618
ंच	-10.2619
▁शिकायत	-10.2619
ेशन	-10.2619
▁परियोजनाओं	-10.2625
ile	-10.2628
▁शून्य	-10.263
so	-10.2632
▁एफ	-10.2633
▁deal	-10.2633
▁Europe	-10.2635
▁born	-10.264
▁note	-10.2641
▁obey	-10.2644
ग्	-10.2644
Allah	-10.2645
▁जुड़े	-10.2647
▁formed	-10.2654
▁तेज	-10.2659
▁ill	-10.2659
▁job	-10.2665
▁समाचार	-10.2667
▁Bar	-10.2669
▁स्	-10.267
▁गैस	-10.267
▁वेब	-10.2677
▁दूध	-10.2677
▁mentioned	-10.2682
▁नेतृत्व	-10.2688
▁2008	-10.2688
▁सवाल	-10.2689
▁बदलें	-10.2689
▁{0}	-10.2691
रत	-10.2691
▁Why	-10.2704
▁generally	-10.2704
▁bad	-10.2705
▁जायेगा	-10.2709
▁क्रम	-10.2715
▁हजार	-10.2716
▁कार्यक्रमों	-10.2717
▁वेतन	-10.2719
01	-10.2729
▁produced	-10.273
▁रो	-10.273
out	-10.2734
▁step	-10.2735
▁painful	-10.2736
ho	-10.2736
▁houses	-10.2738
ub	-10.274
▁एवोल्यूशन	-10.2743
chi	-10.2744
▁आस्ति	-10.2748
▁room	-10.2753
▁Vi	-10.2756
ven	-10.2756
▁generation	-10.2757
▁ख्याल	-10.2758
गु	-10.2759
▁police	-10.2763
▁हिंदू	-10.2763
▁usually	-10.2766
नो	-10.2768
▁King	-10.2769
▁destroyed	-10.2773
sha	-10.2774
दुनिया	-10.2776
▁धीरे	-10.2778
▁carry	-10.2779
pe	-10.278
om	-10.2781
ेड	-10.2781
▁निर्देशिका	-10.2783
▁responsibility	-10.2788
▁ज़ुल्म	-10.2788
▁उसपर	-10.279
▁author	-10.2793
ेल	-10.2794
▁Today	-10.2795
htm	-10.2796
▁URL	-10.28
▁sight	-10.2804
▁जानी	-10.2808
▁कितनी	-10.2819
भाँति	-10.2824
▁इत्यादि	-10.2824
▁कीमत	-10.2835
▁immediately	-10.2837
▁fair	-10.2838
लो	-10.284
र्ट	-10.2844
ens	-10.2847
उस	-10.2847
▁ध्वनि	-10.2848
पूर्वक	-10.2853
▁खुश	-10.2854
मत	-10.2856
30	-10.2857
▁tried	-10.286
▁करार	-10.2863
▁मूल्यांकन	-10.2865
▁शीर्षक	-10.2866
▁associated	-10.2867
वन	-10.2867
qui	-10.2869
▁Supreme	-10.287
▁severe	-10.2871
▁Other	-10.2871
▁कराने	-10.2872
▁सुख	-10.2882
▁सूर्य	-10.2884
▁तट	-10.2884
▁खुले	-10.2885
▁ideas	-10.2885
▁अनुसरण	-10.2885
▁डा	-10.2885
red	-10.2886
▁1961-201	-10.2889
वाला	-10.2889
▁forces	-10.289
▁statement	-10.2891
▁गुरु	-10.2898
ft	-10.2898
▁कल्याण	-10.2898
▁presence	-10.29
्ल	-10.2902
▁टन	-10.2903
▁directory	-10.2907
▁wishes	-10.2911
▁आतंकवाद	-10.2914
▁कै	-10.2914
▁गा	-10.2917
▁red	-10.292
▁plants	-10.2927
▁US	-10.293
▁कमांड	-10.2938
▁Ch	-10.294
▁गु	-10.294
▁२	-10.2943
▁talk	-10.2943
",	-10.2947
▁active	-10.2948
▁गंगा	-10.2948
▁बजे	-10.2954
isation	-10.2956
son	-10.2958
▁Ma	-10.2959
▁continued	-10.296
▁पहुंचा	-10.2961
▁animals	-10.2964
▁draw	-10.2969
detail	-10.2972
▁प्रार्थना	-10.2972
▁काव्य	-10.2978
▁मानक	-10.2981
00	-10.2985
▁units	-10.2986
▁American	-10.2989
▁Plan	-10.2998
▁software	-10.2998
▁पर्यटन	-10.3001
▁पेट	-10.3002
release	-10.3003
▁opportunities	-10.3003
▁आनंद	-10.3004
▁पत्नी	-10.3004
▁दंड	-10.3011
▁अंक	-10.3012
▁moon	-10.3013
▁अंतरण	-10.3015
▁जून	-10.302
▁manifest	-10.3026
▁संस्थाओं	-10.3034
▁बनाते	-10.3034
ेंगे	-10.3039
nt	-10.304
presidentofindia	-10.3045
▁बातचीत	-10.3045
In	-10.3045
▁ख़ास	-10.3046
▁medical	-10.305
▁चीज	-10.3055
▁छूट	-10.3056
▁स्थल	-10.3062
our	-10.3063
▁पाए	-10.3065
▁डरते	-10.3069
▁Mo	-10.307
▁Ba	-10.3071
▁पट्टी	-10.3071
by	-10.3072
वां	-10.3073
▁शेयर	-10.3075
क़यामत	-10.3076
▁poetry	-10.3077
▁measure	-10.3081
▁खिलाफ	-10.3086
▁judge	-10.3087
▁Pre	-10.3089
▁नेता	-10.3091
▁ज़	-10.3091
ible	-10.3092
▁साधन	-10.3095
▁अस्तित्व	-10.3096
▁Islamic	-10.3096
▁regarding	-10.3097
▁Every	-10.3097
▁performance	-10.3098
▁द्वार	-10.3102
▁expenditure	-10.3102
▁struggle	-10.3102
▁famous	-10.3113
▁कर्मचारी	-10.3113
▁feet	-10.3116
der	-10.3123
▁मद	-10.3124
ran	-10.3125
▁systems	-10.3128
▁forgiveness	-10.313
▁separate	-10.3138
एल	-10.3139
▁Explanation	-10.3144
▁anyone	-10.3144
www	-10.3145
▁spend	-10.3145
▁Yet	-10.3145
▁Raj	-10.3148
▁ऐतिहासिक	-10.315
▁ब्र	-10.3152
▁स्वतंत्र	-10.3153
▁प्रा	-10.3155
▁companies	-10.3155
▁industries	-10.3155
▁मिटाएँ	-10.3155
▁होनी	-10.3155
▁ख़	-10.3157
▁beautiful	-10.316
▁traditional	-10.3162
▁बेटे	-10.3162
▁झ	-10.3166
▁तेरे	-10.3171
▁scientific	-10.3176
▁अत्यधिक	-10.3176
▁met	-10.318
डि	-10.3182
ped	-10.3183
▁प्रेरित	-10.3183
▁बीज	-10.3184
▁banks	-10.3186
▁विद्यार्थियों	-10.3186
▁revelations	-10.3194
▁पंचांग	-10.3202
▁focus	-10.3205
▁r	-10.3206
▁Provided	-10.321
ology	-10.3211
▁offer	-10.3211
▁calendar	-10.3213
▁contract	-10.3213
ors	-10.3218
याँ	-10.3219
▁कब	-10.3228
▁Wise	-10.3231
▁particularly	-10.3235
▁कौशल	-10.3235
▁contains	-10.3236
▁आये	-10.3248
ram	-10.3251
ship	-10.3252
▁normal	-10.326
▁निशानी	-10.326
▁मामला	-10.326
▁assistance	-10.3261
▁खास	-10.3262
▁final	-10.3264
▁stay	-10.3269
▁इकाई	-10.3272
्म	-10.3275
▁workers	-10.3281
आई	-10.3285
▁Group	-10.3287
ble	-10.3288
▁प्रारूप	-10.3293
He	-10.3293
war	-10.3295
▁अपराध	-10.3296
▁मुसलमान	-10.3299
▁नव	-10.3302
▁includes	-10.3309
सि	-10.3322
▁link	-10.3323
▁Only	-10.3329
▁supply	-10.333
▁IN	-10.3332
av	-10.3336
▁लाइन	-10.3338
▁बिक्री	-10.3346
▁(4)	-10.3349
▁देखभाल	-10.3351
▁session	-10.3361
fi	-10.3364
चर	-10.3366
▁प्रोत्साहन	-10.3367
▁grow	-10.3368
▁आयतें	-10.3368
▁Pakistan	-10.3378
▁former	-10.338
▁fully	-10.338
▁कक्ष	-10.3381
▁प्रो	-10.3382
▁boy	-10.3385
▁दुआ	-10.3386
▁जाय	-10.3387
▁गृह	-10.3388
▁अद्यतन	-10.3394
▁विजय	-10.3398
▁granted	-10.3399
▁ON	-10.34
13	-10.3401
▁गुज़र	-10.3402
▁उतार	-10.3405
▁proper	-10.3405
▁Message	-10.3406
▁protect	-10.3407
▁journey	-10.341
▁relevant	-10.341
▁बदलाव	-10.3412
▁successful	-10.3413
▁game	-10.3414
▁लाया	-10.3422
▁किसान	-10.3425
▁सुबह	-10.3432
▁बुराई	-10.3435
▁Which	-10.344
▁हराम	-10.3449
▁निदेशक	-10.345
▁रेल	-10.3451
▁conduct	-10.3452
▁essential	-10.3452
ंगे	-10.3454
▁प्रतिक्रिया	-10.3455
▁भगवान	-10.3455
▁बुनियादी	-10.3457
▁media	-10.346
▁Governor	-10.3461
कृत	-10.3463
▁contribution	-10.3464
▁वादा	-10.3464
▁accordance	-10.3464
▁प्रचार	-10.3466
वल	-10.3474
▁चारों	-10.3476
▁net	-10.3476
▁supported	-10.3476
कु	-10.3477
▁na	-10.3478
▁team	-10.348
▁संबंधों	-10.3482
▁ज़ालिम	-10.3483
▁ईमानदारों	-10.3485
▁serve	-10.3489
▁laid	-10.3492
▁limited	-10.3499
▁बैंकों	-10.35
▁बो	-10.3501
▁Image	-10.3502
▁drive	-10.3503
▁Last	-10.3506
▁नष्ट	-10.3508
▁choose	-10.3508
▁बै	-10.3517
ER	-10.3518
ुक	-10.3518
▁mental	-10.3532
▁मानो	-10.3532
▁perhaps	-10.3535
▁administration	-10.3541
▁मशीन	-10.3541
▁taste	-10.3542
▁sp	-10.3544
▁green	-10.3546
▁ठिकाना	-10.3551
▁ago	-10.3555
▁सूक्ष्म	-10.3557
दान	-10.3559
▁मंच	-10.3561
▁स्क्रीन	-10.3562
▁समस्त	-10.3562
▁पुत्र	-10.3569
▁वाद्य	-10.357
▁labour	-10.3572
▁रद्द	-10.3573
▁balance	-10.3575
▁इं	-10.3582
्या	-10.3584
▁Truth	-10.3585
▁लोकतंत्र	-10.3585
▁release	-10.3592
▁Calcutta	-10.3595
▁कहता	-10.3596
▁film	-10.3599
▁agriculture	-10.3601
▁भाषण	-10.3601
▁Will	-10.3604
युक्त	-10.3606
▁expression	-10.3613
▁फ़ैसला	-10.3617
▁स्प	-10.3618
Q	-10.3621
▁January	-10.3624
▁ग़रज़	-10.3626
▁numbers	-10.3628
▁north	-10.363
▁husband	-10.3634
▁प्रकाशन	-10.3634
tal	-10.3635
10	-10.3637
▁memory	-10.364
▁आग्रह	-10.3641
▁अनुकूल	-10.3649
▁Director	-10.3652
▁anti	-10.3654
▁बनने	-10.3657
▁हिस्से	-10.3657
▁Time	-10.3659
▁ध	-10.366
▁week	-10.3666
ूँ	-10.3672
▁लगातार	-10.3679
ster	-10.3679
▁relation	-10.3679
ten	-10.368
वाले	-10.3684
▁नोट	-10.3684
पाल	-10.3685
▁रास्ता	-10.3685
▁सीधा	-10.3685
▁2012	-10.3685
▁गुप्त	-10.3691
▁आध्यात्मिक	-10.3695
▁मां	-10.3698
▁अर्थात्	-10.3702
▁विविध	-10.3705
▁पुकार	-10.3708
▁पढ़ने	-10.3711
▁cell	-10.3711
▁इतने	-10.3711
▁regular	-10.3721
▁मानसिक	-10.3721
▁directly	-10.3727
▁मौत	-10.3728
▁voice	-10.3728
ct	-10.3728
▁Mar	-10.3729
gu	-10.373
हालॉकि	-10.3734
▁paper	-10.3735
▁सेवाएं	-10.3738
५	-10.3741
▁Bharat	-10.3742
▁न्यूनतम	-10.3745
▁Rama	-10.3747
जि	-10.3749
▁Pharaoh	-10.3751
▁Va	-10.3754
▁sons	-10.3757
▁पूजा	-10.376
▁विषयों	-10.376
▁official	-10.3762
▁Enable	-10.3763
▁Shah	-10.3765
▁male	-10.3766
▁स्थानों	-10.3768
▁सामर्थ्य	-10.3769
भाव	-10.3769
▁benefits	-10.3771
▁consideration	-10.3771
ki	-10.3773
▁sufficient	-10.3777
▁32	-10.3792
▁inside	-10.3795
▁cities	-10.3796
▁weight	-10.3797
▁middle	-10.3801
▁कोड	-10.3803
▁mountains	-10.3804
▁ड	-10.3804
▁दोष	-10.3815
▁पहल	-10.3816
▁थोड़ा	-10.3818
ator	-10.3818
▁स्मृति	-10.3823
▁ज्ञापन	-10.3823
▁secret	-10.3825
▁changed	-10.3827
▁System	-10.3828
▁उम्र	-10.3829
▁covered	-10.383
मि	-10.3834
▁types	-10.3839
▁Mumbai	-10.384
ite	-10.3841
▁यथा	-10.3844
▁relationship	-10.3846
▁looking	-10.3851
▁स्त्रियों	-10.3851
▁आपूर्ति	-10.3858
▁तार	-10.3858
▁centre	-10.3859
त्	-10.386
▁portion	-10.3861
▁मज़ा	-10.3863
▁Lok	-10.3864
▁promote	-10.3864
▁ID	-10.3865
▁assets	-10.3869
▁प्रायः	-10.3869
▁length	-10.3874
▁शाखा	-10.3883
▁unjust	-10.3884
▁limit	-10.3884
▁CD	-10.3887
▁favour	-10.3891
▁denied	-10.3891
▁गुमराही	-10.3892
▁करीब	-10.3896
);	-10.3903
▁दूरी	-10.3907
▁2013	-10.3909
▁कथा	-10.391
▁मेहरबान	-10.3911
▁प्रयोजन	-10.3912
▁तथ्य	-10.3912
▁Tamil	-10.3914
▁gods	-10.3915
▁attention	-10.3915
▁waste	-10.3915
▁सुंदर	-10.3917
▁travel	-10.3918
▁clean	-10.3918
िर	-10.3925
▁standard	-10.3928
▁pleasure	-10.3936
▁ख़ूब	-10.3936
▁product	-10.3938
▁शरीक	-10.3942
▁आंतरिक	-10.3942
▁मो	-10.3946
▁profit	-10.3954
▁संसाधनों	-10.3956
ल्ल	-10.3956
▁mis	-10.3958
▁2015	-10.396
▁gain	-10.3961
▁villages	-10.3967
▁influence	-10.3968
▁गवाही	-10.3969
▁laws	-10.397
▁mo	-10.397
day	-10.397
▁पात्र	-10.3974
mb	-10.3975
▁मह	-10.3975
▁नज़र	-10.398
▁permission	-10.398
▁measures	-10.398
▁निर्वाचन	-10.398
▁तभी	-10.3983
▁प्राण	-10.3993
It	-10.3995
▁घरेलू	-10.3999
्क	-10.4002
▁Management	-10.4005
ां	-10.4011
▁design	-10.4012
▁Kashmir	-10.4013
▁Li	-10.4013
▁नागरिकों	-10.4014
▁effort	-10.4014
▁shape	-10.4019
▁perform	-10.4021
▁hours	-10.4023
▁पुस्तिका	-10.4025
▁महत्त्वपूर्ण	-10.4034
sion	-10.4038
▁Abraham	-10.4039
▁Pro	-10.404
ash	-10.4042
▁AND	-10.4045
▁promised	-10.4049
स्व	-10.4054
▁चाल	-10.4056
▁Tax	-10.4061
▁south	-10.4062
▁cooperation	-10.4062
▁90	-10.4062
▁रास्ते	-10.4064
▁Children	-10.4064
IS	-10.4065
▁फैला	-10.4066
राम	-10.4068
▁तरीका	-10.4068
▁मीडिया	-10.4068
▁नृत्य	-10.4071
▁quot	-10.4073
▁मुंबई	-10.4073
▁ज़रुर	-10.4074
▁200	-10.4078
▁percent	-10.4079
▁शुरुआत	-10.4085
▁skin	-10.4089
▁construction	-10.4091
▁largest	-10.4094
पे	-10.4098
▁Account	-10.4099
िम	-10.4099
▁highest	-10.41
▁civil	-10.4101
▁Sub	-10.4105
▁5.	-10.4106
▁देखकर	-10.4108
que	-10.4108
▁milk	-10.4108
IC	-10.4116
▁steps	-10.4117
▁Move	-10.4122
▁else	-10.4125
dar	-10.4129
▁Forgiving	-10.4131
▁रुपए	-10.4132
▁opened	-10.4138
▁परामर्श	-10.4141
▁अनुमान	-10.4142
▁जाएंगे	-10.4142
ap	-10.4143
▁जोखिम	-10.4143
▁दस्तावेज़	-10.4144
▁Home	-10.4146
les	-10.4146
ping	-10.4148
▁ca	-10.4149
▁करा	-10.4152
▁संचालन	-10.4153
uk	-10.4156
▁बोले	-10.416
ex	-10.4167
▁थ	-10.4169
▁ख़ुद	-10.4173
My	-10.4174
ability	-10.4177
▁protection	-10.4179
▁officers	-10.4182
cu	-10.4184
▁भागीदारी	-10.4185
▁देवी	-10.4188
▁cl	-10.419
▁blind	-10.4193
16	-10.4194
एस	-10.4195
▁जल्द	-10.4196
▁पो	-10.4198
▁उद्घाटन	-10.4201
▁Comment	-10.4203
▁गुजरात	-10.4205
▁अभिप्रेत	-10.4207
▁ऑनलाइन	-10.4207
▁chastisement	-10.4207
▁extent	-10.4208
▁marriage	-10.4213
▁रीति	-10.4216
▁दयावान	-10.4219
▁पूछा	-10.4221
▁twenty	-10.4224
▁परिस्थितियों	-10.4231
▁enjoy	-10.4232
▁IT	-10.4233
ani	-10.4233
▁town	-10.4234
▁longer	-10.4234
ning	-10.4238
▁faces	-10.4242
▁wait	-10.4244
▁भागों	-10.4245
we	-10.4249
▁sides	-10.4251
ay	-10.4259
▁Western	-10.426
▁विश्लेषण	-10.4263
▁सर्वोच्च	-10.4265
▁काट	-10.4271
▁वाद	-10.4272
▁अध्याय	-10.4275
गर	-10.4276
▁भाषाओं	-10.4278
tro	-10.428
ल्स	-10.4282
▁तमाम	-10.4283
▁1999	-10.4283
▁implementation	-10.4284
▁connected	-10.4284
नों	-10.4285
्रा	-10.4286
▁Edit	-10.4288
द्द	-10.4294
▁someone	-10.4295
▁मुख	-10.4298
▁Well	-10.4302
▁विवाद	-10.4304
▁Messengers	-10.4305
▁feed	-10.4307
▁सहकारी	-10.4308
▁सार	-10.4308
धर्म	-10.4312
▁बाबत	-10.4313
▁तुझे	-10.4315
▁Thou	-10.4317
▁शा	-10.4318
▁भौतिक	-10.4321
▁आसानी	-10.4325
न्स	-10.4327
▁la	-10.4329
▁advice	-10.433
▁सिवाय	-10.433
▁deemed	-10.4333
▁bit	-10.4336
▁appropriate	-10.4337
50	-10.4337
▁multi	-10.4338
▁मान्यता	-10.4338
स्क	-10.4338
▁mean	-10.4341
▁enemy	-10.4342
▁दूसरों	-10.4342
▁फोन	-10.4343
▁wind	-10.4344
▁पारित	-10.4345
▁गठन	-10.4348
▁पढ़ा	-10.4355
▁figure	-10.4355
▁लड़के	-10.4356
▁secure	-10.4356
▁played	-10.4361
▁fish	-10.4363
▁June	-10.4367
▁December	-10.4373
▁stop	-10.4376
▁फिल्म	-10.4377
19	-10.4381
▁उठाने	-10.4385
ag	-10.4386
And	-10.4388
ide	-10.4388
▁अगस्त	-10.439
▁फसल	-10.4391
ding	-10.4395
▁documents	-10.4401
चि	-10.4401
▁completed	-10.4404
▁Set	-10.4407
▁प्रतीत	-10.4408
▁स्वतः	-10.4408
istic	-10.441
▁request	-10.4413
▁violence	-10.4413
▁entered	-10.4416
रिया	-10.442
▁दयालुता	-10.442
▁included	-10.4423
▁Se	-10.4426
ोर	-10.4431
▁Delete	-10.4431
▁मई	-10.4432
▁तु	-10.4435
▁Di	-10.4435
▁cover	-10.444
एफ	-10.4442
▁दर्ज	-10.4444
भा	-10.4445
▁सर्वाधिक	-10.4447
▁माह	-10.4448
▁establish	-10.4449
▁ha	-10.445
▁चलने	-10.4454
▁मीटर	-10.4459
du	-10.4466
▁road	-10.4467
▁जड़	-10.4482
ेन	-10.4483
▁standing	-10.4488
IT	-10.4488
▁पति	-10.4494
▁educational	-10.4497
dy	-10.4498
▁कानूनी	-10.4501
▁Guru	-10.4504
▁deduction	-10.4504
▁लड़ाई	-10.4504
▁leading	-10.4505
▁items	-10.4509
▁विफल	-10.4518
▁shows	-10.452
▁Bill	-10.4523
न्ड	-10.4524
▁Right	-10.4525
▁115	-10.4525
▁लिंक	-10.4526
▁किनारे	-10.4527
▁घोषित	-10.4529
▁उद्यम	-10.4531
What	-10.4532
▁unique	-10.4534
▁माबूद	-10.4538
▁wall	-10.4538
▁useful	-10.4543
▁burden	-10.4545
tor	-10.4546
▁उपयोक्ता	-10.4548
▁फैसला	-10.4549
तक	-10.4549
▁देखता	-10.4551
▁कार	-10.4561
▁sins	-10.4566
val	-10.4567
▁डाटा	-10.4568
▁lay	-10.4574
▁मल	-10.4576
▁otherwise	-10.4577
▁trial	-10.4578
▁nations	-10.4579
ंज	-10.458
tain	-10.4581
▁लोगो	-10.4581
▁response	-10.4582
-19	-10.4584
▁doers	-10.4584
▁संबोधित	-10.4588
▁saved	-10.4593
▁fine	-10.4595
पति	-10.4601
▁Ro	-10.4601
▁आवास	-10.4602
▁Pra	-10.4604
▁species	-10.4606
▁पलट	-10.4614
▁मोमिन	-10.4622
▁चेतना	-10.4629
▁उपयोगी	-10.4634
▁host	-10.4635
Z	-10.4636
▁democracy	-10.4636
▁अनुरोध	-10.4637
▁Here	-10.4638
्यू	-10.4641
निक	-10.4643
▁अधिकारों	-10.4644
यदि	-10.4645
▁जितना	-10.4649
▁जाओगे	-10.4649
▁प्राथमिकता	-10.465
▁Gujarat	-10.4652
▁tradition	-10.4659
▁अज्ञात	-10.4661
ाय	-10.4662
ांग	-10.4665
▁ग़ालिब	-10.4667
▁Google	-10.4671
▁छह	-10.4672
▁rise	-10.4673
▁model	-10.4674
▁apart	-10.4678
▁rec	-10.4678
▁raise	-10.4682
▁ready	-10.469
▁ऑ	-10.469
▁विन्यास	-10.4691
▁domestic	-10.4691
▁funds	-10.4693
▁maintain	-10.4694
X	-10.4695
▁Policy	-10.4698
▁storage	-10.4698
▁नौ	-10.4699
▁अदा	-10.4699
बू	-10.4699
ably	-10.47
▁moment	-10.4701
▁ch	-10.4705
त्मक	-10.4711
▁हु	-10.4721
▁distance	-10.4722
▁आवाज़	-10.4724
▁रा	-10.4724
mer	-10.473
▁हिंदी	-10.4733
▁pure	-10.4734
▁technical	-10.4734
▁प्राथमिक	-10.4735
▁करेगी	-10.4738
▁हत्या	-10.4741
▁अन्दर	-10.4747
▁शुद्ध	-10.4751
▁km	-10.4753
ai	-10.4757
▁Finance	-10.4759
▁minus	-10.476
▁आक्रमण	-10.476
▁First	-10.4763
▁उत्पादों	-10.4763
▁prevent	-10.4764
▁महामहिम	-10.4765
्यु	-10.4769
ाने	-10.4775
▁2003	-10.4775
▁लिखी	-10.4777
▁आठ	-10.4777
▁समृद्ध	-10.4783
You	-10.4783
▁प्रयत्न	-10.4784
▁उठाए	-10.4785
तु	-10.4788
ions	-10.4798
gi	-10.48
▁सरदार	-10.48
▁प्रतीक्षा	-10.4802
▁stock	-10.4803
ified	-10.4803
▁संकट	-10.4803
▁vi	-10.4804
▁partners	-10.4805
▁औलाद	-10.4806
▁reject	-10.4806
▁straight	-10.4809
od	-10.4809
लोगों	-10.4813
▁निर्देश	-10.4816
▁अनुरूप	-10.4816
▁बीमारी	-10.4818
▁वै	-10.4821
▁hour	-10.4828
▁लेंगे	-10.4833
▁Remove	-10.4833
▁नेहरू	-10.4833
▁तकनीक	-10.4833
▁बजाय	-10.4837
ING	-10.4839
▁stories	-10.484
▁मुक़ाबले	-10.4842
▁उपबंधों	-10.4843
▁site	-10.4843
If	-10.4844
▁select	-10.4845
▁परिणामस्वरूप	-10.4846
▁विपरीत	-10.4852
▁employees	-10.4853
र्ड	-10.4854
tri	-10.4856
▁recent	-10.486
ाह	-10.4861
▁होंगी	-10.4862
मेंट	-10.4868
▁surface	-10.4877
▁Ca	-10.4883
▁powerful	-10.4885
▁चीन	-10.4885
शि	-10.4889
▁located	-10.4891
▁साबित	-10.4896
▁October	-10.4898
▁ठ	-10.4899
र्न	-10.4899
▁operations	-10.4904
ung	-10.4905
▁शुभ	-10.4911
उन	-10.4914
▁सुझाव	-10.4915
▁Chandra	-10.4919
▁PM	-10.492
▁प्रतिनिधित्व	-10.4921
ali	-10.4922
ीकृत	-10.4923
हो	-10.4925
▁औरतों	-10.4926
▁results	-10.4932
▁allow	-10.4932
▁significant	-10.4933
▁बन्दगी	-10.4935
▁पढ़	-10.4938
▁named	-10.494
▁commercial	-10.494
▁विद्यमान	-10.494
नेवाला	-10.494
▁attack	-10.4945
▁join	-10.4949
▁दोस्त	-10.495
▁Ex	-10.495
▁यक़ीनी	-10.4954
▁Address	-10.4956
▁heavy	-10.4959
▁पृथ्वी	-10.4959
vo	-10.4963
▁समझौता	-10.4965
▁कूटशब्द	-10.4965
▁प्रेरणा	-10.4965
▁वर्षा	-10.4966
▁honour	-10.4968
▁कृष्ण	-10.4974
र्म	-10.4974
▁functions	-10.4977
▁According	-10.4977
▁grace	-10.4977
▁जिनको	-10.4978
▁पंजाब	-10.4983
▁ज़ाहिर	-10.4984
▁कितना	-10.4984
▁Le	-10.4985
].	-10.4985
▁table	-10.4986
▁नूह	-10.499
▁प्रशंसा	-10.4995
▁growing	-10.4996
▁Science	-10.4996
▁Start	-10.5
भर	-10.5002
▁सचिव	-10.5003
▁जनसंख्या	-10.5003
▁plain	-10.5008
▁2004	-10.501
▁exercise	-10.5012
▁Bo	-10.5014
▁Import	-10.5014
▁mighty	-10.5018
▁न्यू	-10.502
▁Corporation	-10.5028
्व	-10.5028
▁Ar	-10.5029
▁दा	-10.503
▁Assembly	-10.5041
mit	-10.5042
पूर्व	-10.5043
त्त	-10.5046
▁achieve	-10.5049
▁एच	-10.505
▁जमीन	-10.5052
▁Ko	-10.5063
▁Ad	-10.5064
▁सर्वेक्षण	-10.5066
▁मिनट	-10.5066
prh	-10.5069
▁एंड	-10.5077
▁समाप्ति	-10.508
नाम	-10.5083
▁Po	-10.5085
▁gardens	-10.5088
▁connect	-10.5092
▁fathers	-10.5093
▁अक्षम	-10.5094
▁Bi	-10.5096
▁Nehru	-10.5098
▁external	-10.5098
▁won	-10.5099
▁Programme	-10.5101
▁सच्चा	-10.5102
▁Har	-10.5102
For	-10.5103
▁संवाद	-10.5104
io	-10.512
▁खुली	-10.5121
▁San	-10.5121
▁लोकप्रिय	-10.5122
▁staff	-10.5124
▁अर्थात	-10.5133
▁fruit	-10.5135
▁adopted	-10.5136
20	-10.5136
▁शिखर	-10.5136
,"	-10.5141
▁hearing	-10.5141
▁leader	-10.5147
▁सृजन	-10.5149
▁sacrifice	-10.5149
▁दशक	-10.515
▁stated	-10.5155
▁पसन्द	-10.5156
nath	-10.5157
▁चीज़ों	-10.5159
▁SAW	-10.5162
▁शिकार	-10.5162
▁Office	-10.5166
टो	-10.5167
▁आओ	-10.5167
▁वैसे	-10.517
▁वहीं	-10.5173
▁divine	-10.5175
▁reference	-10.5177
▁origin	-10.5183
▁schemes	-10.5185
▁h	-10.5187
▁Exchange	-10.5188
▁विमान	-10.5193
▁राजनैतिक	-10.5194
▁सन्तान	-10.5194
▁Satan	-10.5195
▁reading	-10.5198
▁इन्कार	-10.5201
▁मैदान	-10.5203
▁जाकर	-10.5205
िनी	-10.5206
▁bound	-10.5208
▁परंपरा	-10.521
▁मुझसे	-10.5212
▁Power	-10.5212
▁व्या	-10.5214
ाया	-10.5216
▁committed	-10.5221
▁प्राधिकारी	-10.5222
▁Path	-10.5228
▁divided	-10.5231
▁भार	-10.5238
▁contained	-10.5239
िता	-10.5242
▁square	-10.5243
▁kill	-10.5244
▁उपभोक्ता	-10.5245
▁involved	-10.5248
▁पाई	-10.5252
ेस	-10.5253
▁पंजीकरण	-10.5253
▁उच्चतम	-10.5255
सो	-10.5257
▁appointment	-10.5261
25	-10.5262
▁संगठनों	-10.5263
AN	-10.5263
कभी	-10.5264
ath	-10.5264
ama	-10.5271
९	-10.5271
▁नबी	-10.5274
▁improve	-10.5275
▁औसत	-10.5276
▁टीम	-10.5276
▁trees	-10.5283
▁entry	-10.5285
▁2009	-10.5287
▁engaged	-10.5288
▁पाते	-10.5291
▁Bombay	-10.5291
▁Secretary	-10.5291
▁सरकारों	-10.5292
▁साफ़	-10.5302
▁Q	-10.5303
▁September	-10.5303
▁रेखा	-10.5304
▁declared	-10.531
".	-10.531
▁कार्यान्वयन	-10.5311
▁काफ़ी	-10.5318
if	-10.5318
▁cash	-10.5321
▁Khan	-10.5321
▁पवित्र	-10.5321
▁payable	-10.5324
▁Chairman	-10.5327
▁screen	-10.533
▁leaves	-10.5331
▁speed	-10.5333
▁warm	-10.5335
▁एकल	-10.5336
▁पूर्वी	-10.5339
▁उदार	-10.5342
lic	-10.5343
▁शारीरिक	-10.5344
▁डाउनलोड	-10.5344
▁सहज	-10.5346
▁2020	-10.5348
▁रू	-10.535
▁II	-10.5355
▁रस	-10.536
कुफ़्र	-10.5361
▁pi	-10.5363
▁अधिसूचना	-10.5363
▁helped	-10.5364
dic	-10.5364
▁independent	-10.5366
▁email	-10.5367
अज़ाब	-10.5368
▁डाले	-10.5368
▁Conference	-10.537
▁mark	-10.537
▁लिखित	-10.5377
▁अदालत	-10.5383
▁त्रि	-10.5383
▁चुने	-10.5388
▁appear	-10.5389
▁उद्योगों	-10.5389
▁नेक	-10.539
▁officer	-10.5394
▁master	-10.5394
▁cells	-10.5395
▁events	-10.5395
▁serious	-10.5396
▁registered	-10.5399
▁November	-10.54
▁सुभाष	-10.5403
▁निहित	-10.5403
▁touch	-10.5412
▁destroy	-10.5415
ेट	-10.5419
▁मुद्दों	-10.5422
▁exists	-10.5426
भारत	-10.5427
▁पड़ी	-10.5427
▁policies	-10.5429
¤1	-10.543
▁खान	-10.5433
ेज	-10.5437
▁evening	-10.5438
ib	-10.5438
▁China	-10.5438
▁track	-10.5442
▁military	-10.5446
▁thinking	-10.5447
▁Up	-10.5447
ging	-10.5453
▁animal	-10.5455
▁amongst	-10.5456
▁temples	-10.5458
▁Nath	-10.5468
▁कनेक्शन	-10.5469
▁त्याग	-10.5472
▁उठाया	-10.5474
▁di	-10.5477
▁(1	-10.5478
▁प्रबंधक	-10.5483
▁Any	-10.5487
▁अर	-10.5488
▁पेंशन	-10.5489
▁exist	-10.549
जू	-10.5492
▁श्रम	-10.5497
ron	-10.5498
dra	-10.5504
▁developing	-10.5505
▁सुविधाओं	-10.5508
▁स्तंभ	-10.551
▁जिनसे	-10.5514
▁अमेरिकी	-10.5515
▁शैक्षिक	-10.5515
CC	-10.552
▁average	-10.5522
▁processing	-10.5523
ंगी	-10.5525
▁joint	-10.5526
शक्ति	-10.5529
ाम	-10.5531
▁guard	-10.5532
▁चुनौती	-10.5535
्ड	-10.5537
▁तूने	-10.5538
ार्थ	-10.554
▁Unto	-10.554
▁असमर्थ	-10.5552
▁fruits	-10.5554
▁ईमानदार	-10.5556
▁चु	-10.5557
▁fields	-10.5566
▁families	-10.5569
िट	-10.5571
▁enable	-10.5574
▁परिवहन	-10.5579
▁पै	-10.5583
▁45	-10.5583
▁u	-10.5588
▁Text	-10.5589
▁Free	-10.56
दे	-10.56
ju	-10.5602
कुछ	-10.5602
▁पहाड़	-10.5602
ल्ड	-10.5602
▁जिले	-10.5606
▁correct	-10.5607
▁घंटे	-10.5609
▁lived	-10.561
सार	-10.5611
नु	-10.5612
▁questions	-10.5615
▁छा	-10.5616
▁फूल	-10.5619
▁चक्र	-10.5619
▁बटन	-10.5621
▁गणना	-10.5626
▁प्रोत्साहित	-10.5629
स्प	-10.5629
▁ज्ञात	-10.563
मिल	-10.5632
cc	-10.5632
tha	-10.5637
▁जैव	-10.5645
▁छत	-10.5646
▁श्रृंखला	-10.5649
▁नक़ल	-10.5649
▁Nay	-10.5662
▁additional	-10.5662
with	-10.5662
▁undertaking	-10.5663
ny	-10.5664
▁ट	-10.5665
▁location	-10.5668
▁लेख	-10.5672
▁कॉल	-10.5675
िज	-10.5676
info	-10.5677
▁causes	-10.5678
▁Per	-10.5683
▁expressed	-10.5686
ze	-10.5688
▁complex	-10.5688
▁पहुँचे	-10.5689
gg	-10.569
▁युक्त	-10.5692
दन	-10.5692
▁sometimes	-10.5694
▁Indians	-10.5694
▁टूट	-10.5694
▁नयी	-10.5696
▁दाखिल	-10.5696
ुर	-10.5701
▁नजर	-10.5701
rd	-10.5701
▁circumstances	-10.5702
▁बदलने	-10.5704
Do	-10.571
▁कार्यवाही	-10.5711
▁मूर्ति	-10.5713
▁अगला	-10.5713
▁कान	-10.5714
ard	-10.5714
▁देर	-10.5716
▁समीक्षा	-10.5717
▁बिहार	-10.572
▁Description	-10.5721
▁आकर	-10.5724
▁academic	-10.573
▁forest	-10.5733
▁छात्रों	-10.5736
▁केरल	-10.5737
▁निगरानी	-10.5737
▁उपन्यास	-10.5738
र्द	-10.574
▁अन्यथा	-10.5741
▁फिरऔन	-10.5743
▁Ja	-10.5743
▁कहाँ	-10.5745
▁लक्षण	-10.5747
▁Da	-10.5748
em	-10.575
▁पूज्य	-10.5753
▁अकबर	-10.5755
▁हमसे	-10.5756
▁धारण	-10.5758
▁रेलवे	-10.576
▁advance	-10.5761
var	-10.5762
▁gas	-10.5763
▁Paradise	-10.5764
▁1956	-10.5765
▁remained	-10.5768
▁एकता	-10.5769
िय	-10.577
▁आना	-10.5772
▁रहमत	-10.5772
▁Gandhiji	-10.5772
▁En	-10.5778
▁ज़िन्दगी	-10.578
▁शुक्र	-10.5781
▁Out	-10.5784
▁परिवर्तित	-10.5785
▁needed	-10.5786
▁shares	-10.5793
▁घड़ी	-10.5796
यो	-10.5796
▁मुश्किल	-10.5799
▁समर्पित	-10.5799
▁अभिव्यक्ति	-10.5801
▁messengers	-10.5801
▁क़ुरान	-10.5801
▁Si	-10.5803
▁तलाश	-10.5806
▁Ne	-10.5806
▁foundation	-10.5807
▁mass	-10.5807
▁seems	-10.5808
▁opening	-10.5809
▁lines	-10.5811
▁Kerala	-10.5812
▁terrorism	-10.5813
▁Punjab	-10.5815
▁standards	-10.5816
▁August	-10.5817
▁Mission	-10.5827
▁विधेयक	-10.5829
▁likely	-10.5831
▁images	-10.5833
▁Enter	-10.5833
लों	-10.5836
▁mention	-10.5837
▁मुलाकात	-10.584
aka	-10.584
▁desires	-10.5843
▁आवाज	-10.5845
▁Uttar	-10.5847
▁dated	-10.5847
▁मुक़र्रर	-10.5848
▁soil	-10.5848
मार	-10.5848
gen	-10.5849
▁Bihar	-10.5852
▁महाराष्ट्र	-10.5853
▁स्वा	-10.5853
ava	-10.5857
▁variety	-10.586
▁truly	-10.5861
▁सॉफ्टवेयर	-10.5863
▁Post	-10.5863
mon	-10.5866
▁refers	-10.5866
▁कलकत्ता	-10.5867
▁इंटरनेट	-10.5867
▁Ni	-10.5869
▁hide	-10.587
▁Air	-10.5873
▁संपादक	-10.5874
▁taught	-10.5874
▁फेंक	-10.5875
▁consciousness	-10.5875
ढ	-10.5876
ving	-10.5876
Muhammad	-10.5882
▁false	-10.5883
▁हैंः	-10.5884
▁praise	-10.5887
▁increasing	-10.5895
▁जेल	-10.5895
▁आरोप	-10.5897
▁टे	-10.5899
▁मिलेगा	-10.5905
▁associate	-10.5907
▁sort	-10.5908
▁avoid	-10.5909
▁राजस्थान	-10.5909
▁मस्तिष्क	-10.5912
▁75	-10.5915
▁लगते	-10.5922
▁विरोधी	-10.5925
ps	-10.5925
▁पुस्तकालय	-10.593
▁अनुपात	-10.593
▁rejected	-10.5931
▁extended	-10.5935
घर	-10.5936
▁killed	-10.5937
▁चालू	-10.5938
itis	-10.5939
▁लाते	-10.5941
▁Tri	-10.5942
▁जादू	-10.5943
▁शि	-10.5948
▁दिनांक	-10.5957
▁Over	-10.5957
▁व्याख्या	-10.5958
▁log	-10.5958
▁समग्र	-10.5958
▁युक्ति	-10.5965
▁machine	-10.5965
▁Qu	-10.5966
▁उक्त	-10.5966
▁Knowing	-10.597
▁web	-10.597
▁सभ्यता	-10.5972
▁खुला	-10.5981
▁स्थिर	-10.5982
▁School	-10.5985
▁2,	-10.5985
▁remains	-10.5988
▁माँग	-10.5989
ष्ठ	-10.599
ix	-10.5999
▁मिसाल	-10.5999
▁distribution	-10.6001
ice	-10.6004
▁knowing	-10.6005
▁Its	-10.6006
▁बढ	-10.6006
▁elements	-10.6009
▁Fund	-10.601
▁विभाजन	-10.6013
▁इसको	-10.6015
र्ज	-10.6018
bha	-10.6019
▁पृष्ठभूमि	-10.6021
▁रौशन	-10.6024
lam	-10.6024
▁al	-10.6027
▁तथापि	-10.6028
▁निर्	-10.6028
▁Also	-10.6028
▁interests	-10.6029
▁Change	-10.6031
▁Bha	-10.6033
▁आसपास	-10.6034
▁Had	-10.6038
ेश्वर	-10.6038
▁wives	-10.6041
▁chosen	-10.6043
▁भेजें	-10.6047
▁राज्यपाल	-10.6048
▁partnership	-10.6056
वत	-10.6061
दू	-10.6062
▁जरिए	-10.6062
▁proud	-10.6063
▁असम	-10.6065
▁मैने	-10.6066
▁प्रारंभिक	-10.6068
लिंग	-10.6068
▁महल	-10.6071
int	-10.6076
▁River	-10.6077
cy	-10.6079
दो	-10.6082
▁शहरी	-10.6083
▁context	-10.6084
▁वैध	-10.6087
▁root	-10.6089
▁नुकसान	-10.609
शास्त्र	-10.6092
▁शोध	-10.6092
▁trying	-10.6093
▁वचन	-10.6096
▁Car	-10.6099
▁lack	-10.61
▁foot	-10.6105
▁संदेह	-10.6105
▁सतह	-10.6107
▁हि	-10.6111
नीय	-10.6115
▁अचानक	-10.6119
▁remote	-10.6119
▁difference	-10.6122
▁load	-10.6129
▁July	-10.6131
▁प्रतिभा	-10.6134
▁2017	-10.6134
मेल	-10.6138
▁Great	-10.6141
▁अस	-10.6141
ec	-10.6144
▁निष्क्रिय	-10.6144
▁आरम्भ	-10.6145
▁medium	-10.6147
▁रोकने	-10.6148
▁शाह	-10.6148
क्रम	-10.6149
▁हवाई	-10.6153
▁नंबर	-10.6154
▁दौड़	-10.6156
▁earned	-10.6156
▁target	-10.6157
▁whosoever	-10.6158
▁objective	-10.6159
ious	-10.6159
▁organisation	-10.6164
माल	-10.6168
▁जलवायु	-10.6168
▁2016	-10.6169
्ता	-10.6174
देश	-10.6175
▁कुफ्फ़ार	-10.6176
था	-10.6176
ists	-10.6177
▁series	-10.6179
▁Kar	-10.618
▁इनका	-10.6182
▁District	-10.6183
ल्ट	-10.6183
▁जुलाई	-10.6183
▁suffer	-10.6189
▁pray	-10.6189
▁महात्मा	-10.619
▁described	-10.6193
▁6.	-10.6194
▁शहरों	-10.6195
▁कदापि	-10.6197
▁Division	-10.6197
▁पेड़	-10.6199
▁ग्राहक	-10.62
▁glad	-10.6206
▁दीवार	-10.6211
▁लंबे	-10.6211
फ़ा	-10.6217
▁moral	-10.6217
▁risk	-10.6222
▁description	-10.6225
▁card	-10.6227
▁“”	-10.6229
कता	-10.6234
▁करोगे	-10.6236
▁destination	-10.624
▁आस	-10.6241
▁Sam	-10.6243
▁मोबाइल	-10.6245
▁contain	-10.6245
▁दरमियान	-10.6254
▁gold	-10.6255
og	-10.6258
▁sale	-10.627
▁साथी	-10.627
▁चर	-10.6271
▁Maharashtra	-10.6275
▁larger	-10.6276
▁चुन	-10.6277
▁hell	-10.628
▁आख़िर	-10.6282
▁independence	-10.6283
▁फ़ॉन्ट	-10.629
▁मूल्यों	-10.629
▁mutual	-10.629
▁प्राधिकरण	-10.6297
▁मकान	-10.6298
▁holding	-10.6299
ned	-10.63
▁output	-10.63
fe	-10.6305
▁Ganga	-10.6306
▁उधार	-10.6306
▁मॉडल	-10.6312
den	-10.6318
▁empty	-10.6319
▁Type	-10.6322
▁दुखद	-10.6324
▁expected	-10.6324
▁observed	-10.6325
जब	-10.6329
लू	-10.633
▁pain	-10.6335
▁levels	-10.6335
▁क्षमाशील	-10.6336
▁Sir	-10.6339
▁abroad	-10.634
▁forget	-10.634
बि	-10.6347
▁Rajasthan	-10.635
ala	-10.6351
▁सजदा	-10.6352
▁crops	-10.6354
▁cattle	-10.6355
▁calls	-10.6355
▁convey	-10.6356
ke	-10.6357
▁चिंता	-10.6359
▁messenger	-10.636
क़ियामत	-10.6369
Our	-10.6371
▁घाटे	-10.6374
▁association	-10.6374
▁phase	-10.6376
▁2011	-10.638
▁worked	-10.6381
▁block	-10.6383
▁Certificate	-10.6384
▁resolution	-10.6384
ification	-10.6386
▁died	-10.6386
▁नेताओं	-10.6386
▁board	-10.6389
▁इकट्ठा	-10.6391
▁European	-10.6392
▁संलग्न	-10.6392
▁चलाने	-10.6394
▁पारंपरिक	-10.6394
▁dust	-10.6403
▁स्वच्छ	-10.6403
▁तोड़	-10.6407
▁समर्थित	-10.6408
▁online	-10.6412
मर	-10.6413
▁जोड़ने	-10.6414
▁विशेषकर	-10.6416
▁vast	-10.6417
▁योजनाओं	-10.6418
▁organization	-10.6418
▁sectors	-10.6421
▁poems	-10.6425
▁Tagore	-10.6427
▁अनुदान	-10.6429
▁चे	-10.643
▁फा	-10.6431
ाइड	-10.6431
▁truthful	-10.6434
▁title	-10.6435
▁तीव्र	-10.6435
▁Maha	-10.6438
▁clearly	-10.6439
▁transport	-10.644
▁कम्प	-10.6442
▁पुरानी	-10.6442
चार	-10.6444
▁nine	-10.6445
द्ध	-10.6446
▁tidings	-10.6449
▁launched	-10.6451
▁teachers	-10.6451
▁विश्वविद्यालयों	-10.6455
वाह	-10.6456
▁आकर्षित	-10.6457
▁साझा	-10.6457
▁सारा	-10.6459
▁ज़्यादा	-10.6464
▁annual	-10.6464
pt	-10.6464
▁looked	-10.6465
▁चैनल	-10.6466
ach	-10.6467
▁friendly	-10.6468
▁determined	-10.6469
▁सौर	-10.647
▁defined	-10.6472
▁उत्	-10.6481
▁introduced	-10.6481
▁hidden	-10.6486
▁नेअमत	-10.6487
पत	-10.649
▁धैर्य	-10.6493
▁Ya	-10.6493
क्ति	-10.6497
▁button	-10.6505
▁Bal	-10.6506
▁कंपनियों	-10.6508
▁सागर	-10.6515
set	-10.6516
ual	-10.652
▁star	-10.6521
▁अनक़रीब	-10.6523
▁आमतौर	-10.6523
▁पुष्टि	-10.6524
▁दि	-10.6525
▁लेखन	-10.6526
▁wisdom	-10.653
▁removed	-10.6531
▁गाय	-10.6532
▁commit	-10.6533
q	-10.6534
▁घटनाओं	-10.6536
▁Copy	-10.6536
विज्ञान	-10.6538
hal	-10.654
▁नाथ	-10.6542
▁काफ़िर	-10.6542
दि	-10.6543
▁कम्पनी	-10.6547
▁नियंत्रित	-10.6552
▁बिलकुल	-10.6552
▁शाम	-10.6553
▁majority	-10.6564
▁भंडारण	-10.6568
▁brothers	-10.657
▁परमाणु	-10.6574
▁Hindus	-10.6576
▁February	-10.6577
▁दया	-10.6581
डो	-10.6582
ara	-10.6582
▁submit	-10.6582
▁लकड़ी	-10.6589
▁कामना	-10.6592
व्य	-10.6592
▁brings	-10.6593
▁station	-10.6598
▁Ga	-10.6599
▁goal	-10.6606
▁सू	-10.6608
▁procedure	-10.6611
▁सुदृढ़	-10.6611
▁fresh	-10.6611
▁Nepal	-10.6612
▁ईमेल	-10.6613
▁Because	-10.6615
▁listen	-10.6616
▁rupees	-10.6616
ोन	-10.6617
▁Services	-10.662
cha	-10.6623
▁ताकत	-10.6626
रिक	-10.6627
▁दिखाता	-10.6627
▁प्रिय	-10.6631
▁applications	-10.6633
▁poverty	-10.6634
▁safety	-10.6634
▁अल्प	-10.6635
▁bed	-10.6636
▁deliver	-10.6637
IN	-10.6641
▁वृक्ष	-10.6643
▁fill	-10.6649
▁spent	-10.665
▁Inter	-10.665
▁कराया	-10.6653
▁कमजोर	-10.6653
तंत्र	-10.6654
▁Akbar	-10.6656
ीर	-10.6658
टन	-10.666
▁throughout	-10.666
▁प्रबंध	-10.6662
▁literary	-10.6663
▁वर्ण	-10.6664
▁500	-10.6665
▁impact	-10.6665
▁port	-10.6669
▁सड़क	-10.6669
▁ship	-10.667
▁इनकी	-10.6671
▁Network	-10.6671
▁फरवरी	-10.6671
▁maximum	-10.6671
▁Work	-10.6673
प्प	-10.6675
▁aid	-10.6677
▁मं	-10.6679
▁Water	-10.6679
▁बु	-10.668
▁संविदा	-10.6682
▁प्रशासनिक	-10.6682
▁beauty	-10.6686
▁तत्वदर्शी	-10.6686
▁characters	-10.6687
▁अगल	-10.6687
▁pressure	-10.6688
▁सब्र	-10.6689
▁इसने	-10.6692
ज्ञ	-10.6694
▁Though	-10.6694
ियर	-10.6694
▁import	-10.6697
▁नवान्वेषण	-10.6697
▁affairs	-10.6699
▁70	-10.67
▁instance	-10.6701
row	-10.6702
▁साम्राज्य	-10.6703
▁bill	-10.6704
▁reduce	-10.6706
ांत	-10.6713
ाक	-10.6714
▁अस्पताल	-10.6716
▁easily	-10.6716
▁ourselves	-10.6716
▁reply	-10.6716
▁चेतावनी	-10.6716
▁बौद्ध	-10.6716
▁दान	-10.6717
▁army	-10.6719
tar	-10.6722
▁delivered	-10.6722
▁songs	-10.6723
▁Mahatma	-10.6723
nce	-10.6732
ick	-10.6734
▁व्यावसायिक	-10.6738
▁walk	-10.6739
gar	-10.674
धा	-10.674
▁purchase	-10.6744
▁Data	-10.6747
ising	-10.6749
▁संसदीय	-10.6752
▁ज़िन्दा	-10.6752
▁कुमार	-10.6752
▁expect	-10.6753
▁philosophy	-10.6753
▁बिंदु	-10.6756
▁seed	-10.6756
▁उपस्थिति	-10.6756
▁बर	-10.6758
▁studies	-10.6761
▁आनन्द	-10.6761
▁department	-10.6762
▁शत्रु	-10.6763
▁मास	-10.6763
cal	-10.6765
▁विनिमय	-10.6767
▁press	-10.6769
▁नहरें	-10.677
▁दुख	-10.6772
▁universal	-10.6776
▁उत्तरी	-10.6779
▁offered	-10.6781
▁शक्तियों	-10.6783
act	-10.6785
from	-10.6786
ुआ	-10.6788
▁safe	-10.6789
▁Display	-10.6791
बु	-10.6793
▁confidence	-10.6793
▁Color	-10.6796
▁drop	-10.6798
▁ball	-10.6802
▁प्रावधान	-10.6804
▁dream	-10.6808
▁बढ़ती	-10.6808
▁crop	-10.6808
▁assigned	-10.681
▁प्रतिनिधि	-10.6811
▁विरासत	-10.6814
िये	-10.682
▁unity	-10.6821
▁disbelieved	-10.6822
▁phone	-10.6826
15	-10.6826
▁positive	-10.6829
नेवाले	-10.6837
▁moving	-10.6837
▁1947	-10.6837
▁तर	-10.6842
लु	-10.6845
दु	-10.6847
▁खराब	-10.6849
स्टर	-10.6851
▁01	-10.6852
▁establishment	-10.6857
▁थोड़े	-10.686
▁vital	-10.686
▁count	-10.6862
▁dark	-10.6866
▁greatest	-10.6875
▁समझने	-10.6875
▁extend	-10.6878
▁settings	-10.688
▁जानने	-10.6882
▁अपेक्षित	-10.6882
▁ढांचे	-10.6882
▁हार	-10.6883
▁Did	-10.6883
mar	-10.6883
▁Gu	-10.6885
▁किस्म	-10.6888
▁Health	-10.689
AT	-10.6891
▁History	-10.6891
▁Both	-10.6892
हित	-10.6892
▁बाह्य	-10.6895
पो	-10.6895
▁gets	-10.6901
▁gains	-10.6903
▁मारे	-10.6906
▁खड़ी	-10.6907
वास	-10.6912
लैंड	-10.6914
und	-10.692
▁मना	-10.6928
▁बस्ती	-10.693
▁communication	-10.693
▁प्रभुत्वशाली	-10.6936
▁promotion	-10.6936
▁birds	-10.6936
ाए	-10.6943
▁विविधता	-10.6943
▁Default	-10.6949
▁partner	-10.6949
rat	-10.695
▁भेंट	-10.6952
▁Kan	-10.6952
▁देखना	-10.6953
▁द्वि	-10.6954
han	-10.6956
▁पशु	-10.6957
bo	-10.6957
▁chief	-10.6958
▁उतर	-10.6958
▁लिखे	-10.6962
▁मध्यम	-10.6963
▁चूंकि	-10.6967
▁मुसीबत	-10.6967
ff	-10.6968
▁approved	-10.6969
▁देखे	-10.6969
▁dry	-10.6974
▁होम	-10.6976
▁२००	-10.6977
▁reminder	-10.698
▁Special	-10.6981
▁सकेंगे	-10.6984
▁खोलने	-10.6987
▁seeking	-10.6989
▁valid	-10.6996
▁बोस	-10.6996
▁examination	-10.6997
▁petitioner	-10.6998
▁homes	-10.7002
▁yield	-10.7005
▁कीट	-10.7007
ाकार	-10.701
▁covenant	-10.7013
ून	-10.7013
▁तल	-10.7014
▁innovation	-10.7016
▁minister	-10.7016
gra	-10.7018
▁ra	-10.7019
▁सबके	-10.7021
▁इल्म	-10.7021
▁परिसर	-10.7026
▁”-	-10.7027
▁टा	-10.7028
▁निवास	-10.703
▁हटकर	-10.7032
▁Qur	-10.7034
ey	-10.704
सू	-10.704
▁Nor	-10.7042
▁Bengali	-10.7043
▁कड़ी	-10.7046
▁उत्साह	-10.7048
▁ईमानवालों	-10.7048
▁watch	-10.705
▁बारगाह	-10.7052
▁cross	-10.7053
पार	-10.7059
▁initiatives	-10.706
▁अभाव	-10.7065
▁novel	-10.7071
not	-10.7073
▁belief	-10.7075
▁extension	-10.7075
▁Hour	-10.7078
▁चली	-10.7079
▁replied	-10.7083
▁सांसारिक	-10.7083
▁forbidden	-10.7083
▁अन्ततः	-10.7091
▁बुद्ध	-10.7097
▁decide	-10.7098
▁late	-10.71
ier	-10.71
▁namely	-10.7102
▁Send	-10.7107
▁hair	-10.7107
▁Cha	-10.711
▁न्यास	-10.7114
▁ठहरा	-10.7117
ताओं	-10.7124
▁kingdom	-10.713
▁सुनने	-10.7133
▁season	-10.7133
▁aim	-10.7135
▁charges	-10.7137
▁परिचय	-10.7138
▁blessings	-10.7138
▁reduced	-10.714
है	-10.7141
▁दबाव	-10.7141
▁चीनी	-10.7145
ika	-10.7148
▁संबद्ध	-10.7148
▁टैब	-10.7156
▁मस्जिद	-10.7157
▁wherein	-10.7158
लोक	-10.716
▁Among	-10.7161
▁दोबारा	-10.7163
▁mainly	-10.7163
▁रहेगी	-10.7164
▁जु	-10.7169
▁merely	-10.7174
▁height	-10.7174
▁नियुक्ति	-10.7178
ina	-10.7183
▁राजधानी	-10.7184
▁daily	-10.7185
▁Ki	-10.7186
▁string	-10.7187
▁उत्कृष्ट	-10.7191
▁चरित्र	-10.7191
mm	-10.7191
AR	-10.7192
▁pleased	-10.7192
▁गुमराह	-10.7192
▁store	-10.7196
▁युवाओं	-10.7197
▁नेकी	-10.7198
राज्य	-10.7198
▁dear	-10.72
▁welfare	-10.72
वासी	-10.7201
▁machinery	-10.7201
▁मिलेगी	-10.7203
गल	-10.7207
▁award	-10.7207
▁सिविल	-10.7208
ES	-10.7212
▁pattern	-10.7213
ug	-10.7214
“”	-10.7215
▁points	-10.7216
▁schools	-10.7216
▁door	-10.7221
▁girl	-10.7221
▁अंतर्	-10.7222
▁गांवों	-10.7222
ther	-10.7223
▁मिलते	-10.7223
▁33	-10.7228
▁happened	-10.7229
uri	-10.7229
▁संग्रहालय	-10.7232
▁सम्पूर्ण	-10.7233
▁micro	-10.7233
24	-10.7235
▁articles	-10.7236
▁garden	-10.7237
fer	-10.7237
use	-10.7238
धर	-10.724
▁विनष्ट	-10.7242
▁views	-10.7246
▁क़िस्म	-10.7248
▁failure	-10.7248
▁अनुग्रह	-10.7248
ज़ी	-10.7249
RE	-10.7252
▁dispute	-10.7252
▁strengthen	-10.7258
▁सदा	-10.7263
chan	-10.7266
mp	-10.7267
▁कही	-10.727
▁ho	-10.7271
▁excellent	-10.7271
▁लंबी	-10.7271
“	-10.7275
▁रोगी	-10.7279
▁Besides	-10.7279
▁स्कीम	-10.728
▁सम्बन्धी	-10.7281
▁feeling	-10.7285
▁recompense	-10.7286
▁मुझ	-10.7287
▁सफेद	-10.7287
▁Scripture	-10.7287
हे	-10.7291
▁challenges	-10.7291
▁Ta	-10.7291
▁दिखाने	-10.7296
clause	-10.7299
▁integral	-10.7303
▁Since	-10.7304
pro	-10.7304
iya	-10.7305
▁profits	-10.7306
▁Date	-10.731
▁तेरी	-10.7313
▁विशेषता	-10.7314
ेंट	-10.7315
her	-10.7315
▁इंच	-10.7319
▁cold	-10.7319
▁minimum	-10.7319
▁हिंसा	-10.7319
▁souls	-10.732
▁heat	-10.7322
ham	-10.7324
▁Application	-10.7327
▁battle	-10.7327
▁carrying	-10.7328
▁kinds	-10.733
▁प्लगइन	-10.7331
▁branch	-10.7332
▁तयशुदा	-10.7335
▁चेहरे	-10.7335
▁7.	-10.7337
▁पैर	-10.7339
▁एकमात्र	-10.7344
▁installed	-10.7345
▁Each	-10.7345
▁acts	-10.7345
▁Dis	-10.7346
▁स्वस्थ	-10.7348
▁अन्त	-10.735
▁avail	-10.7351
▁मिलियन	-10.7353
▁warn	-10.7355
▁आहार	-10.7361
▁ja	-10.7362
▁बुला	-10.7362
▁Make	-10.7364
▁भेजने	-10.7365
देव	-10.7366
▁कैसा	-10.7369
▁lest	-10.7371
▁दाख़िल	-10.7375
निया	-10.7375
las	-10.7378
▁warner	-10.738
▁regional	-10.7382
▁Law	-10.7382
▁notification	-10.7382
▁दैनिक	-10.7383
▁आराम	-10.7389
22	-10.739
▁Ke	-10.7397
▁sought	-10.7399
▁अस्थायी	-10.7399
▁authorities	-10.74
▁लेन	-10.7401
▁गरीब	-10.7405
▁दबा	-10.7405
▁कुरान	-10.7406
▁पर्वत	-10.7407
▁primary	-10.7407
▁creating	-10.7407
▁cry	-10.7408
▁जन्नत	-10.7409
▁urban	-10.7411
ियत	-10.7413
▁अवतरित	-10.7415
▁Two	-10.7416
▁चुना	-10.7417
▁Page	-10.7419
▁जटिल	-10.7421
▁प्रसार	-10.7422
▁नैतिक	-10.7425
way	-10.7428
द्व	-10.743
▁न्यायाधीश	-10.7431
▁पाठ्यक्रम	-10.7431
▁थोड़ी	-10.7431
▁internal	-10.7432
▁Raja	-10.7433
▁खण्ड	-10.7435
▁मिटा	-10.7445
▁generations	-10.7449
▁अर्ध	-10.745
▁बाकी	-10.7451
ंगा	-10.7454
tan	-10.746
uc	-10.7461
▁belong	-10.7462
ck	-10.7465
कार्य	-10.7466
▁डरो	-10.7469
ore	-10.747
▁tab	-10.7471
▁campaign	-10.7472
▁joined	-10.7473
▁weak	-10.7473
▁वस्त्र	-10.7474
▁2010	-10.7475
▁खींच	-10.7479
▁समझौते	-10.748
▁पूछ	-10.7482
▁teacher	-10.7483
▁vote	-10.7483
समय	-10.7484
▁resource	-10.7487
▁east	-10.7487
▁Check	-10.7489
nal	-10.7492
▁review	-10.7499
▁गहरा	-10.7502
▁Official	-10.7504
▁पुन	-10.7506
▁गोल	-10.7509
▁menu	-10.751
▁Part	-10.751
▁library	-10.7512
▁cr	-10.7513
▁follows	-10.7513
▁मानवीय	-10.7514
▁तस्वीर	-10.7517
▁College	-10.752
▁Financial	-10.752
गन	-10.7528
▁नर	-10.7533
▁keeping	-10.7536
▁festival	-10.7536
▁fellow	-10.7537
▁ख़ुश	-10.7542
▁punish	-10.7544
▁फ़ाइलें	-10.7548
▁highly	-10.7549
▁regions	-10.7552
▁affected	-10.7554
▁practices	-10.7555
rid	-10.7557
ेर	-10.7559
▁Her	-10.7559
▁returns	-10.756
▁huge	-10.7561
▁equipment	-10.7562
▁lose	-10.7564
क़ायम	-10.7565
▁शिक्षक	-10.7567
▁ऑडियो	-10.7568
▁Language	-10.7569
▁selection	-10.7574
▁44	-10.7577
▁seem	-10.7584
▁box	-10.7585
▁finance	-10.7586
▁तुरंत	-10.7586
▁उपक्रम	-10.7589
▁पालने	-10.7596
▁भले	-10.7597
▁ideal	-10.7597
▁degree	-10.7602
▁शर्तों	-10.7607
▁सुविधाएं	-10.7607
ber	-10.7611
▁concern	-10.7613
▁refuge	-10.7615
ade	-10.7618
▁लिमिटेड	-10.7618
▁वर्गों	-10.7623
▁घटक	-10.7626
▁बनाये	-10.7626
स्थान	-10.7629
▁समुद्री	-10.7633
▁background	-10.7635
डर	-10.7635
▁upper	-10.7636
▁चिह्न	-10.7637
▁inner	-10.7637
▁ट्रैक	-10.7638
▁02	-10.7641
▁संयंत्र	-10.7643
▁critical	-10.7644
▁लाओ	-10.7645
com	-10.7649
▁विभाजित	-10.7651
▁क्षति	-10.7652
ल्	-10.7659
▁fundamental	-10.766
▁सराहना	-10.766
▁सर्वोत्तम	-10.766
्वा	-10.766
▁री	-10.7661
▁दिव्य	-10.7662
▁completely	-10.7664
शु	-10.7666
▁जिम्मेदारी	-10.7666
▁filled	-10.7666
क्षेत्र	-10.7666
जैसे	-10.7667
▁अनुसूचित	-10.7668
▁Yoga	-10.7668
▁बच्चा	-10.7668
▁believing	-10.7668
▁communities	-10.7668
▁suffering	-10.767
▁दोनो	-10.7671
▁drawn	-10.7674
▁निकाला	-10.7674
▁निरीक्षण	-10.7676
▁picture	-10.7677
▁बच	-10.768
▁prosperity	-10.7685
याद	-10.7686
17	-10.7686
र्थ	-10.7686
▁ka	-10.7687
▁हिकमत	-10.7693
▁एड	-10.7703
¤1⁄4	-10.7709
▁बनाता	-10.7709
▁Authority	-10.771
▁column	-10.7715
▁अनुमोदन	-10.7718
▁संपादित	-10.7718
ष्ट	-10.7722
▁हट	-10.7722
▁Am	-10.7723
▁जाल	-10.7724
▁भंडार	-10.7725
▁darkness	-10.7728
▁Rules	-10.773
▁छिपा	-10.7733
धी	-10.7733
▁संध्या	-10.7735
▁सेटिंग	-10.7735
▁submitted	-10.7736
▁Assam	-10.7742
हन	-10.7744
▁Pe	-10.7745
000	-10.7757
tive	-10.7763
वेद	-10.7765
▁Number	-10.7767
▁Reserve	-10.7767
कम	-10.7771
▁suit	-10.7771
▁पाँच	-10.7776
▁सितंबर	-10.7776
▁choice	-10.7776
▁fell	-10.7778
▁actual	-10.7778
some	-10.7782
ep	-10.7783
▁लाइसेंस	-10.7784
▁भरा	-10.7784
▁क़ुरआन	-10.7789
▁फार्म	-10.7792
▁turns	-10.7792
▁संवर्धन	-10.7793
▁कश्मीर	-10.7796
thi	-10.7797
▁Excellency	-10.7801
▁बिगाड़	-10.7801
eg	-10.7801
▁requirements	-10.7801
▁उन्नत	-10.7806
ward	-10.7807
▁1992	-10.7809
▁damage	-10.781
▁स्वीकृति	-10.7814
▁delivery	-10.7814
▁historical	-10.7816
▁समृद्धि	-10.7819
▁See	-10.782
▁diseases	-10.782
▁हिमालय	-10.7826
lan	-10.7826
▁ठोस	-10.7826
▁latter	-10.7826
च्छ	-10.783
▁intellectual	-10.7834
▁visible	-10.7834
▁उपखंड	-10.7835
▁माप	-10.7838
▁reality	-10.7838
dal	-10.7841
▁Br	-10.7842
▁relief	-10.7843
▁guilty	-10.7843
▁Click	-10.7844
▁Sha	-10.7844
न्ट	-10.7848
▁कं	-10.7848
▁Help	-10.7849
▁Gardens	-10.785
▁entitled	-10.7851
▁filter	-10.7851
▁प्रभार	-10.7854
za	-10.7854
▁150	-10.7858
▁हार्दिक	-10.786
▁क्ल	-10.786
▁संपादन	-10.786
▁agreed	-10.7861
▁Web	-10.7862
▁latest	-10.7862
▁Sp	-10.7863
▁proof	-10.7864
▁आयी	-10.7865
ोस	-10.7866
▁fit	-10.7867
▁खत्म	-10.7868
▁प्रवाह	-10.7869
▁possess	-10.787
▁प्रेस	-10.787
1.	-10.787
▁अग्र	-10.7872
▁learned	-10.7875
▁शुरु	-10.7877
▁यूनिट	-10.7877
▁बुरे	-10.7878
▁Non	-10.7879
Re	-10.7881
cus	-10.7886
rate	-10.7886
▁rock	-10.7888
मगर	-10.789
▁attempt	-10.789
▁आवश्यकताओं	-10.7891
esh	-10.7892
sk	-10.7893
▁मोदी	-10.7894
bb	-10.7896
▁passing	-10.7897
▁agree	-10.7899
▁Par	-10.7902
▁Report	-10.7903
▁Foreign	-10.7905
▁individuals	-10.7907
▁manager	-10.791
▁greetings	-10.7911
शोथ	-10.7914
▁प्रतिष्ठित	-10.7916
▁प्रदूषण	-10.7919
ौर	-10.7919
▁Life	-10.7919
▁leadership	-10.7919
▁shared	-10.7924
▁36	-10.7925
▁reform	-10.7927
▁राहत	-10.7929
▁features	-10.7934
▁delete	-10.7935
्द	-10.7935
▁Company	-10.7936
▁प्रविष्टि	-10.7936
ेश	-10.7937
▁विहित	-10.7937
▁प्यार	-10.7939
▁नीतियों	-10.7942
king	-10.7945
▁sections	-10.7947
aj	-10.7948
40	-10.7949
▁Andhra	-10.795
pl	-10.795
▁bodies	-10.7953
▁Speaking	-10.7954
▁everyone	-10.7957
▁प्रचलित	-10.7961
▁conference	-10.7961
▁wronged	-10.7965
▁reasons	-10.7968
▁Library	-10.797
▁duties	-10.797
जु	-10.797
▁चौड़ाई	-10.797
देन	-10.7971
▁channel	-10.7972
▁जोड़ा	-10.7973
▁memo	-10.7974
ED	-10.7978
▁multiple	-10.7978
▁भावी	-10.7981
▁खाओ	-10.7981
▁commitment	-10.7982
▁चढ़	-10.7985
▁double	-10.7986
▁सुनते	-10.7986
▁England	-10.7987
पद	-10.7987
▁thereby	-10.7987
▁conflict	-10.799
तल	-10.799
▁जहाज	-10.7992
▁teaching	-10.7992
▁aspects	-10.7993
▁happen	-10.7994
▁materials	-10.7998
▁yourself	-10.7999
▁wants	-10.8001
hood	-10.8003
▁द्विपक्षीय	-10.8004
▁Export	-10.8004
▁sacred	-10.8012
▁स्वचालित	-10.8012
लर	-10.8013
ँग	-10.8018
ट्ट	-10.8019
▁approval	-10.8021
▁गहन	-10.8022
ris	-10.8024
▁plugin	-10.8025
▁Fa	-10.8028
ou	-10.8028
tter	-10.8029
▁Buddha	-10.8029
▁लगाए	-10.8031
▁admit	-10.8037
▁facility	-10.8038
▁48	-10.8039
ाद	-10.8039
▁seized	-10.8042
stra	-10.8045
▁रिक्त	-10.8046
▁iron	-10.8048
▁सोचा	-10.8051
द्	-10.8052
▁mission	-10.8053
ld	-10.8054
ग्र	-10.8055
▁क़दम	-10.8055
▁सुनता	-10.806
▁principles	-10.8062
द्र	-10.8063
▁DVD	-10.8063
▁Tribunal	-10.8064
LE	-10.8064
▁chance	-10.8065
▁अग्रणी	-10.8065
▁उन्होने	-10.8066
▁attitude	-10.8067
▁राजनीति	-10.8068
▁climate	-10.8072
▁west	-10.8074
▁performed	-10.8075
▁division	-10.8076
▁द्वीप	-10.8078
▁परिभाषित	-10.8078
▁कॉलेज	-10.8078
▁द्वितीय	-10.8081
मल	-10.8083
▁फ़िल्म	-10.8086
भाग	-10.8092
क्षा	-10.8097
मिन	-10.8097
▁आदान	-10.8098
▁audio	-10.8098
▁उतना	-10.81
▁sit	-10.8111
▁Park	-10.8113
▁फि	-10.8113
▁साहस	-10.8115
▁परम	-10.8118
▁moved	-10.8119
▁reforms	-10.8121
▁सावधान	-10.8124
▁डिजाइन	-10.8124
▁स्वर	-10.8124
▁पार्क	-10.8124
▁Mark	-10.8127
योग	-10.8127
▁options	-10.8129
▁Ho	-10.8132
▁participation	-10.8132
▁स्वाभाविक	-10.8132
EC	-10.8133
▁planning	-10.8133
▁(5)	-10.8134
time	-10.8134
कला	-10.8137
▁मछली	-10.8138
▁ऊपरी	-10.8139
▁समूहों	-10.8144
▁कागज	-10.8146
▁विपणन	-10.815
▁although	-10.815
▁perfect	-10.8151
▁match	-10.8152
▁बन्दे	-10.8153
रस	-10.8157
▁victory	-10.8158
▁कर्नाटक	-10.8158
▁कारोबार	-10.8159
UR	-10.8159
▁संक्रमण	-10.8159
▁challenge	-10.8162
▁inspired	-10.8163
▁निष्कर्ष	-10.8166
▁कपड़े	-10.8168
OR	-10.8168
▁जहन्नम	-10.8169
mal	-10.8172
▁चेक	-10.8172
▁जिहाद	-10.8173
▁User	-10.8176
Comment	-10.8178
▁disk	-10.8178
▁फर्म	-10.8179
▁element	-10.818
▁मुंह	-10.8184
ong	-10.8185
ged	-10.819
RI	-10.819
su	-10.819
▁एकत्र	-10.819
▁Internet	-10.8193
▁बीमार	-10.8195
cent	-10.8201
▁परहेज़गार	-10.8202
▁Kumar	-10.8202
▁archive	-10.8203
लन	-10.8206
ory	-10.8207
▁लै	-10.8207
▁सम्	-10.821
▁HTML	-10.821
▁चिह्नित	-10.8214
▁भरे	-10.8217
▁भटक	-10.8218
क्त	-10.822
▁myself	-10.8221
van	-10.8223
मोमिनीन	-10.8223
▁छात्र	-10.8224
▁daughter	-10.8224
ंब	-10.8228
▁Assistant	-10.8228
▁बहुतेरे	-10.823
▁Sal	-10.8245
▁गुजर	-10.8245
▁नेपाल	-10.8245
▁भक्ति	-10.8246
▁संरक्षक	-10.8246
▁suitable	-10.8248
dis	-10.8249
my	-10.825
▁spoke	-10.8251
▁बोली	-10.8251
▁दिसंबर	-10.8263
▁governance	-10.8263
▁deposit	-10.8263
▁defence	-10.8263
▁बद	-10.8269
▁Min	-10.8269
टि	-10.827
▁registration	-10.8272
▁लानेवालो	-10.8275
soever	-10.8277
▁bestowed	-10.828
-1	-10.8281
यु	-10.8287
ple	-10.8288
▁methods	-10.8292
▁दर्द	-10.8292
:-	-10.8296
▁released	-10.8296
▁profession	-10.8297
▁वकील	-10.8298
▁साहित्यिक	-10.8299
▁आजादी	-10.8299
वाई	-10.83
्ज	-10.8303
yn	-10.8306
▁छाया	-10.8307
▁adequate	-10.8307
मेरे	-10.8307
ूल	-10.8307
▁अक्षर	-10.8308
▁डिफ़ॉल्ट	-10.831
▁ज़रा	-10.8312
▁ज़ालिमों	-10.8312
▁टि	-10.8313
▁लेती	-10.8314
▁टिप्पणी	-10.8316
▁पैकेज	-10.8317
्न	-10.8318
▁सलाम	-10.8319
▁Modi	-10.8322
▁ahead	-10.8325
▁attached	-10.833
▁उतारा	-10.8332
▁ऊंचाई	-10.8335
▁कर्तव्य	-10.8335
▁editor	-10.8335
kh	-10.8337
▁enabled	-10.8337
▁Article	-10.8337
▁असर	-10.8338
br	-10.8342
▁1998	-10.8342
▁va	-10.8343
sis	-10.8343
कुल	-10.8345
धि	-10.8346
▁se	-10.8348
▁nearly	-10.8349
▁Chand	-10.8351
▁insurance	-10.8351
ute	-10.8356
▁prices	-10.8358
▁जय	-10.8359
▁sitting	-10.8361
TH	-10.8362
▁टो	-10.8363
▁भेजी	-10.8366
▁देय	-10.8368
▁forever	-10.8369
▁धन्यवाद	-10.8369
▁मुगल	-10.837
▁sleep	-10.8371
बो	-10.8372
▁bilateral	-10.8386
▁300	-10.8389
▁Self	-10.8395
05	-10.8399
▁दौर	-10.8401
▁मंदिरों	-10.841
▁symbol	-10.8413
kha	-10.8415
▁चाहा	-10.8417
▁Press	-10.8418
ata	-10.8419
serv	-10.842
▁magic	-10.8422
▁झुठला	-10.8422
▁आश्चर्य	-10.8422
▁desert	-10.8422
izing	-10.8423
par	-10.8423
ियम	-10.8424
▁Dh	-10.8425
▁users	-10.8427
▁सहमत	-10.8428
▁repent	-10.843
▁changing	-10.8431
▁मानना	-10.8432
cl	-10.8433
▁counter	-10.8433
▁wood	-10.8435
▁faithful	-10.8438
▁Mighty	-10.8441
▁समझता	-10.8446
▁यूरोपीय	-10.8448
▁win	-10.8452
▁consists	-10.8456
▁00	-10.8458
▁सीधी	-10.846
पिता	-10.8461
▁Control	-10.8462
▁limits	-10.8462
▁bow	-10.8463
▁Invalid	-10.8465
▁Code	-10.8466
जितनी	-10.8468
ans	-10.8468
▁subjects	-10.847
▁महीनों	-10.8471
▁सामूहिक	-10.8476
▁theme	-10.8477
▁folders	-10.8478
▁stood	-10.8485
▁बजट	-10.8487
▁दवा	-10.8492
ates	-10.8497
▁देखी	-10.8501
▁हस्त	-10.8503
▁About	-10.8503
प्रभु	-10.8507
▁रुचि	-10.8508
▁minutes	-10.8509
ng	-10.851
▁क़त्ल	-10.8511
side	-10.8512
▁स्वर्ण	-10.8512
▁sources	-10.8517
प्रदान	-10.8517
ture	-10.8518
▁चाहेंगे	-10.8518
▁दुर्घटना	-10.852
िड	-10.8521
▁सदी	-10.8521
AB	-10.8522
▁swear	-10.8523
▁Command	-10.8524
हत	-10.8526
ानी	-10.8529
▁platform	-10.8529
▁अवसरों	-10.8533
02	-10.8535
▁mouth	-10.8537
▁आइ	-10.8538
▁publication	-10.8538
▁सूत्र	-10.854
▁containing	-10.854
▁बादशाह	-10.8541
▁mountain	-10.8543
▁समझे	-10.8543
▁मू	-10.8544
▁waiting	-10.8545
▁ति	-10.8545
▁सत्यापन	-10.8548
▁हितों	-10.855
▁achieved	-10.8552
▁प्रतिभूति	-10.8552
अप	-10.8556
▁तत्काल	-10.8558
▁प्रान्त	-10.856
ष्	-10.8561
▁त्वचा	-10.8565
▁अन्तर्गत	-10.8566
▁recently	-10.8567
ट्र	-10.8569
▁समानता	-10.8569
▁joy	-10.857
▁प्रविष्ट	-10.857
▁लॉग	-10.8571
▁वरिष्ठ	-10.8575
▁दृढ़	-10.8575
▁गहरी	-10.8575
ack	-10.8576
नर	-10.8576
▁पत्रिका	-10.8578
ue	-10.858
▁caste	-10.858
ient	-10.8581
हमारे	-10.8588
▁सां	-10.8589
▁अरबी	-10.859
wan	-10.8592
▁स्था	-10.8592
▁More	-10.8593
▁Sar	-10.8594
▁दास	-10.8597
▁charged	-10.861
▁facilitate	-10.8611
▁priority	-10.8612
▁तंत्रिका	-10.8615
▁संगम	-10.8616
▁advantage	-10.8617
▁nuclear	-10.862
आप	-10.8622
▁क्षण	-10.8625
▁अग्रिम	-10.8627
▁agencies	-10.8629
▁वंश	-10.8629
▁बैठ	-10.863
उप	-10.8637
▁improvement	-10.8638
▁ग्रंथ	-10.864
तों	-10.8646
▁Class	-10.8647
▁उद्यान	-10.8647
▁धातु	-10.8647
ler	-10.8648
▁लूत	-10.8649
▁सीमाओं	-10.8651
▁फ़रिश्ते	-10.8651
▁Don	-10.8652
▁पैमाने	-10.8661
▁भारतीयों	-10.8664
ess	-10.8665
▁आएगा	-10.8665
▁पीढ़ी	-10.8666
▁super	-10.8666
▁Knower	-10.8668
▁Party	-10.8671
▁Kovind	-10.8674
▁Contact	-10.8674
▁डॉलर	-10.8675
▁treated	-10.8676
shi	-10.8676
▁पासवर्ड	-10.8677
▁गुफा	-10.868
▁layer	-10.868
▁जानवरों	-10.868
▁देवता	-10.8683
▁proportion	-10.8683
18	-10.8689
▁reflect	-10.8691
▁proved	-10.8692
ek	-10.8693
▁plays	-10.87
▁भरी	-10.8701
विमर्श	-10.8702
▁volume	-10.8702
▁उल्लेखनीय	-10.8702
▁पूर्ति	-10.8703
जनक	-10.8705
▁fighting	-10.8706
▁क्रिकेट	-10.8711
▁शिक्षण	-10.8711
▁कोशिका	-10.8714
▁Ali	-10.8714
हल	-10.8717
iness	-10.8718
ान्त	-10.8719
▁London	-10.872
दास	-10.8721
▁Another	-10.8721
▁insects	-10.8722
▁सिफारिश	-10.8728
▁डेस्कटॉप	-10.8729
▁सदस्यता	-10.873
▁पक्षों	-10.8731
God	-10.8734
जर	-10.8738
▁URI	-10.874
▁Auto	-10.8741
▁#	-10.8743
▁रेडियो	-10.8743
▁tr	-10.8747
▁क्रांति	-10.8748
▁चोट	-10.8749
▁अनुज्ञात	-10.8749
▁समन्वय	-10.8757
ॉन	-10.8757
▁actions	-10.8759
▁centres	-10.876
▁Rajya	-10.876
▁यूसुफ	-10.8761
▁script	-10.8761
▁विद्यालय	-10.8762
▁लौटा	-10.8764
▁Society	-10.8766
▁यु	-10.8768
▁जम्मू	-10.877
▁शोक	-10.8773
DA	-10.8774
▁letters	-10.8774
▁Province	-10.8775
▁recorded	-10.8776
▁चन्द	-10.878
ms	-10.878
क्योंकि	-10.8782
▁ग़ौर	-10.8785
▁नौकरी	-10.8786
▁worth	-10.8786
▁register	-10.8786
▁hi	-10.8787
▁awareness	-10.8788
▁कौ	-10.8789
▁Members	-10.8789
▁पट	-10.8791
▁चू	-10.8792
▁witnesses	-10.8793
पु	-10.8794
▁da	-10.8795
▁1948	-10.8795
▁tool	-10.8797
कर्म	-10.8799
▁forgiving	-10.88
▁encourage	-10.8801
▁इसराईल	-10.8803
▁विनिर्माण	-10.8804
▁debt	-10.8809
▁allowance	-10.8813
▁अपनाया	-10.8814
NAME	-10.8814
भूत	-10.8815
▁piece	-10.8815
▁thanks	-10.8816
▁नेशनल	-10.8821
▁सशक्त	-10.8822
▁पहलू	-10.8824
,—	-10.8825
▁served	-10.8828
▁चीजों	-10.8829
▁आंध्र	-10.8831
▁बांध	-10.8832
▁मिलाकर	-10.8834
▁professional	-10.8834
▁begin	-10.8834
▁अंतरिक्ष	-10.884
▁बौद्धिक	-10.884
▁broad	-10.8842
▁commanded	-10.8844
▁लड़	-10.8846
मंडल	-10.8846
▁reveal	-10.8846
▁bo	-10.8847
▁भेद	-10.8847
▁चाहें	-10.8849
▁manufacturing	-10.8849
▁survey	-10.8849
▁soft	-10.8853
RA	-10.8857
04	-10.8858
▁Tu	-10.8859
▁visited	-10.8862
▁strive	-10.8868
▁हमको	-10.8869
▁marked	-10.8869
▁frame	-10.8869
▁Red	-10.887
र्इ	-10.8872
ments	-10.8877
▁wonder	-10.8878
▁समा	-10.8879
)...	-10.8882
▁रसायन	-10.8884
▁mobile	-10.8887
▁बैठा	-10.8889
▁तुम्हे	-10.8894
▁संत	-10.8896
▁विरूद्ध	-10.8896
▁principle	-10.8898
ID	-10.8899
िटी	-10.89
▁सीडी	-10.8904
▁निकाय	-10.8909
▁requires	-10.8909
▁कष्ट	-10.8909
SS	-10.8913
▁चाह	-10.8913
SE	-10.8914
▁abode	-10.8915
क्क	-10.8915
▁बेच	-10.8915
▁reports	-10.8915
▁>>	-10.8917
▁Line	-10.892
▁actor	-10.8921
▁sex	-10.8921
▁वीर	-10.8922
▁emphasis	-10.8924
▁असाधारण	-10.8924
ura	-10.8925
▁Ab	-10.8926
▁अस्थि	-10.8926
▁Training	-10.8927
▁जानवर	-10.8929
▁साथियों	-10.893
ov	-10.8931
▁पूर्वावलोकन	-10.8933
▁यथास्थिति	-10.8933
फर	-10.8934
▁तकलीफ़	-10.8934
वाली	-10.8934
▁election	-10.8935
▁सचेत	-10.8942
▁Pan	-10.8952
▁sweet	-10.8952
▁फ़िल्टर	-10.8952
▁situated	-10.8953
ेय	-10.8956
▁BC	-10.8964
▁फ़िरऔन	-10.8967
रह	-10.8968
▁throw	-10.8969
▁अहले	-10.897
▁signed	-10.897
▁Security	-10.8975
gh	-10.8976
▁democratic	-10.8976
fa	-10.8978
▁whereas	-10.8979
▁hot	-10.8981
▁इन्	-10.8985
▁constituted	-10.8989
▁universities	-10.899
▁प्रतियोगिता	-10.899
▁Justice	-10.899
▁escape	-10.899
▁नवीन	-10.899
▁पोर्ट	-10.8995
▁interesting	-10.8995
लेट	-10.8996
graph	-10.8997
ंध	-10.8998
▁happiness	-10.8999
▁fault	-10.8999
▁तीसरे	-10.9
▁फैल	-10.9
▁अर्जित	-10.9001
▁‘‘	-10.9002
ev	-10.9003
▁race	-10.9005
▁Israeli	-10.9007
▁grieve	-10.9008
▁उपयोगकर्ता	-10.9012
▁फे	-10.9017
▁दर्दनाक	-10.9018
▁figures	-10.9018
▁brain	-10.9019
aw	-10.9019
▁warning	-10.9022
ंप	-10.9023
▁बचाव	-10.9023
▁यूँ	-10.9024
▁चाय	-10.9025
03	-10.9025
▁poem	-10.9031
09	-10.9035
▁इंडियन	-10.9037
▁cave	-10.9038
▁फोटो	-10.9042
▁Once	-10.9044
▁abide	-10.9046
▁seeing	-10.9048
▁कठिनाई	-10.9049
▁inform	-10.905
▁कट	-10.9051
▁concept	-10.9053
▁jurisdiction	-10.9056
▁डूब	-10.9057
▁पौधों	-10.9058
किसी	-10.9063
▁पुर	-10.9064
▁strike	-10.9069
्ट	-10.9073
▁Karnataka	-10.9075
▁तत्वों	-10.9076
वै	-10.9078
▁successfully	-10.9078
▁मर्द	-10.9081
▁पंजीकृत	-10.9084
▁Men	-10.9088
टक	-10.9089
▁कारणों	-10.9094
▁merciful	-10.9094
▁colour	-10.9095
पि	-10.9096
▁Human	-10.9097
▁घाटी	-10.9098
▁बाहम	-10.9098
▁guides	-10.9099
▁पुस्तकों	-10.9101
▁कुशल	-10.9103
▁pen	-10.9103
▁राजस्व	-10.9105
▁भूख	-10.9106
▁प्रेषित	-10.9107
▁tea	-10.9107
▁Mail	-10.9108
▁बाबू	-10.9108
▁संहिता	-10.9109
ोप	-10.911
▁प्रसंग	-10.9115
मुसलमानों	-10.9115
▁proceedings	-10.9115
▁FOR	-10.9115
right	-10.9116
ेक	-10.9118
▁covering	-10.9119
▁Ru	-10.912
ren	-10.9125
▁अक्तूबर	-10.9125
ोल	-10.9127
▁stream	-10.9131
प्त	-10.9136
▁healthy	-10.9141
▁संदाय	-10.9142
▁अली	-10.9144
▁बचत	-10.9145
▁squared	-10.9146
▁student	-10.9147
▁गर्म	-10.9149
oo	-10.915
▁burning	-10.9155
▁ability	-10.9157
▁confident	-10.916
▁discussion	-10.9166
▁Year	-10.9166
▁Jews	-10.9167
▁wage	-10.9167
▁ग़	-10.9168
▁map	-10.9171
▁गरीबी	-10.9172
▁Arabic	-10.9172
क़ा	-10.9174
▁Sun	-10.9174
▁लिंग	-10.9176
▁दुश्मन	-10.9176
ral	-10.9178
▁ख्वाह	-10.9178
▁५	-10.9178
पट	-10.9179
▁खतरा	-10.918
तन	-10.918
▁3,	-10.9182
▁le	-10.9183
▁contacts	-10.9183
▁साम	-10.9185
▁Mal	-10.9186
▁छोड़ा	-10.9187
▁मूलभूत	-10.9191
▁Next	-10.9195
स्थल	-10.9195
▁grown	-10.9196
▁li	-10.9196
▁showing	-10.9196
ency	-10.9197
▁banking	-10.9197
▁Before	-10.9199
ea	-10.9202
▁principal	-10.9209
▁supreme	-10.9209
▁falsehood	-10.9209
tr	-10.921
▁त्रुटिः	-10.921
▁decades	-10.9225
▁उपर	-10.9225
▁केंद्रित	-10.9226
▁www	-10.9227
▁negative	-10.9228
▁उपकरणों	-10.9229
▁writer	-10.9232
▁appears	-10.9233
▁गठित	-10.9238
▁sentence	-10.9243
▁Find	-10.9246
अच्छा	-10.9248
▁Note	-10.9249
▁union	-10.9252
mat	-10.9256
▁offering	-10.9257
▁announced	-10.926
▁34	-10.9263
▁ro	-10.9265
स्ट्र	-10.9266
▁फ्ल	-10.9266
▁toward	-10.9269
▁कहेगा	-10.9272
▁जीत	-10.9273
▁ध्वज	-10.9276
▁शक्तिशाली	-10.9277
हु	-10.9279
र्ण	-10.9279
▁officials	-10.9283
▁applied	-10.9286
▁अधिकरण	-10.9288
ालय	-10.9289
▁अमर	-10.929
▁ज़ोर	-10.929
▁ईसाई	-10.9293
▁scientists	-10.9293
▁unable	-10.9294
▁fuel	-10.9296
▁couple	-10.9296
▁drama	-10.9296
ern	-10.9298
bit	-10.9299
निशानियों	-10.9302
26	-10.9304
▁express	-10.9305
▁tonnes	-10.9305
▁Jammu	-10.9306
▁smaller	-10.9306
▁घट	-10.9311
▁orders	-10.9311
▁weeks	-10.9314
▁फायदा	-10.9315
▁आउट	-10.9318
▁friendship	-10.9326
मुख	-10.9326
▁becoming	-10.9327
▁Roy	-10.933
▁par	-10.9331
▁ब्रह्म	-10.9332
▁Vishnu	-10.9335
▁accident	-10.9335
▁आलोचना	-10.9335
▁scholars	-10.9336
▁बैंकिंग	-10.9337
▁शिशु	-10.9342
▁संक्षिप्त	-10.9344
23	-10.9346
▁आकृति	-10.9347
▁लाना	-10.9347
▁factor	-10.9348
▁factors	-10.935
▁records	-10.9351
\\	-10.9351
▁व्यक्तित्व	-10.9354
▁doctor	-10.9354
▁welcome	-10.9354
▁Mu	-10.9355
▁Disable	-10.9357
▁घटा	-10.9358
▁सहमति	-10.9362
फी	-10.9363
▁Unknown	-10.9364
▁कथन	-10.9364
▁शर्त	-10.9367
raj	-10.9373
ces	-10.9374
▁proposed	-10.9376
तार	-10.9379
▁followers	-10.938
वृत्त	-10.9382
yan	-10.9382
▁Noah	-10.9383
▁प्रवृत्ति	-10.9383
▁efficient	-10.9384
▁hasten	-10.9384
▁वाणिज्यिक	-10.9385
▁Sur	-10.9386
▁offline	-10.9386
▁श्रेष्ठ	-10.939
▁नेत्र	-10.939
▁उल्लंघन	-10.9393
▁UN	-10.9393
▁कॉ	-10.9394
▁transferred	-10.9394
ight	-10.9396
▁Call	-10.9398
ls	-10.9398
▁Musa	-10.9405
▁sending	-10.9405
▁meant	-10.9406
▁देगें	-10.9406
▁Governments	-10.941
▁recognised	-10.9412
▁heritage	-10.9413
▁trouble	-10.9413
▁गुरू	-10.9414
▁मंडल	-10.9414
port	-10.9416
▁अमल	-10.9416
▁hospital	-10.9416
▁1950	-10.9424
▁skill	-10.9425
▁बॉ	-10.9425
▁input	-10.943
▁pollution	-10.9433
▁सुसंगत	-10.9433
▁उठ	-10.9435
▁उलट	-10.9437
▁काफिरों	-10.9437
▁08	-10.944
mu	-10.944
▁पहुंचे	-10.9449
▁योग्यता	-10.9449
28	-10.9449
▁लगती	-10.9449
▁Bose	-10.9456
▁acquired	-10.9458
▁सैनिक	-10.9463
▁lawful	-10.9467
▁मुक्ति	-10.9469
let	-10.9471
▁गाँव	-10.9472
▁कोविन्द	-10.9472
▁निष्पादन	-10.9472
▁ji	-10.9474
▁elected	-10.9477
▁हॉ	-10.9478
▁whatsoever	-10.9479
▁obtained	-10.9484
▁engineering	-10.9485
▁weather	-10.9488
▁उद्	-10.9489
▁Legislative	-10.9492
▁Close	-10.9492
▁</	-10.9495
▁bringing	-10.9497
चित	-10.9497
प्रति	-10.9498
▁आफ	-10.95
▁Women	-10.9502
▁married	-10.9502
▁specify	-10.9505
एच	-10.9505
▁destruction	-10.9512
▁contribute	-10.9512
No	-10.9515
▁ki	-10.9516
▁जुड़ा	-10.9518
▁Mary	-10.9519
▁मांस	-10.9521
▁Clear	-10.9521
▁currency	-10.9522
over	-10.9524
▁जिम्मेदार	-10.9524
▁बढ़ने	-10.9526
▁showed	-10.9528
▁currently	-10.953
▁विद्रोह	-10.9532
work	-10.9534
▁दोहरा	-10.9535
▁सम्पर्क	-10.9542
light	-10.9545
▁beings	-10.9546
▁सीख	-10.9546
▁billion	-10.9547
▁Social	-10.9548
ration	-10.955
▁looks	-10.955
▁implemented	-10.9551
▁परिवारों	-10.9552
▁objects	-10.9553
▁मादा	-10.9556
jan	-10.9556
▁patience	-10.9561
▁Business	-10.9562
पक	-10.9562
ोगे	-10.9562
▁प्रभाग	-10.9563
▁custom	-10.9567
.—	-10.9568
▁politics	-10.9571
▁दुःख	-10.9571
▁Gra	-10.9572
मित	-10.9576
▁पड़ती	-10.9578
▁para	-10.9579
ाप	-10.958
िव	-10.958
▁temperature	-10.9581
▁गढ़	-10.9582
▁अप्र	-10.9584
wi	-10.9586
जल	-10.9586
▁हलाक	-10.9586
अर	-10.9589
▁चुनौतियों	-10.9592
▁rice	-10.9608
▁doesn	-10.9608
dhi	-10.961
▁लु	-10.961
▁डिजिटल	-10.961
▁tribal	-10.9612
▁मनुष्यों	-10.9613
▁dealing	-10.9613
▁जायेगी	-10.9615
▁attachment	-10.9615
▁पोस्ट	-10.9621
ula	-10.9621
▁सकाः	-10.9622
aya	-10.9624
▁विद्वान	-10.9627
▁पड़ेगा	-10.9627
▁पैरवी	-10.9629
▁classes	-10.9631
▁औपचारिक	-10.9632
▁fe	-10.9634
ुन	-10.9636
21	-10.9637
put	-10.9638
▁rates	-10.9639
▁अनुपालन	-10.9642
वाल	-10.9648
▁Force	-10.9648
lin	-10.9649
▁judgment	-10.9652
▁daughters	-10.9656
▁बेटा	-10.9656
ose	-10.9661
▁administrative	-10.9662
▁फ़रिश्तों	-10.9667
ery	-10.9671
नेट	-10.9672
▁unknown	-10.9672
▁निवासी	-10.9673
▁Joseph	-10.9674
▁बनकर	-10.9675
2.	-10.9677
▁prove	-10.9678
ंगल	-10.9679
▁extra	-10.9685
▁Mother	-10.9686
▁Would	-10.9686
lip	-10.9691
▁Chapter	-10.9692
▁संभावित	-10.9692
▁अंतराल	-10.9693
▁ve	-10.9693
▁चाहती	-10.9695
▁Shiva	-10.9696
▁instruments	-10.9697
▁graph	-10.9698
▁initiative	-10.9701
▁Affairs	-10.9702
▁अकेले	-10.9702
▁zone	-10.9703
▁Master	-10.9703
▁districts	-10.9704
चल	-10.9707
▁CO	-10.9708
▁sc	-10.9709
▁नवंबर	-10.9712
▁route	-10.9713
▁pa	-10.9713
▁उपज	-10.9718
▁रोका	-10.972
▁behold	-10.9722
▁ears	-10.9724
ants	-10.9724
▁लगाना	-10.9726
cept	-10.9727
मार्ग	-10.973
▁टुकड़े	-10.9731
▁argument	-10.9732
▁वंचित	-10.9733
▁playing	-10.9734
▁minds	-10.9737
▁click	-10.9738
सम	-10.9738
▁चन्द्र	-10.9741
▁maintenance	-10.9743
▁technologies	-10.9743
▁crime	-10.9743
▁skills	-10.9747
▁नील	-10.9748
▁ढ	-10.9751
▁appeared	-10.9753
▁चीज़े	-10.9755
▁compared	-10.9756
▁constant	-10.9756
xi	-10.9756
▁center	-10.9759
▁स्वीकृत	-10.9759
गण	-10.9764
▁gathered	-10.9766
▁John	-10.9768
ved	-10.977
▁जयंती	-10.9773
▁Nadu	-10.9774
फल	-10.9777
रक	-10.9779
धार	-10.9782
▁ताल	-10.9783
▁धारणा	-10.9783
▁convert	-10.9783
▁ordinary	-10.9783
▁hurt	-10.9783
▁courts	-10.9787
श्त	-10.9793
▁bounty	-10.9794
▁discharge	-10.9794
▁बस्तियों	-10.9794
▁सौंप	-10.9797
dha	-10.9802
▁operating	-10.9804
▁क़ुबूल	-10.9804
▁permanent	-10.9807
अब	-10.9808
AD	-10.9808
ify	-10.9809
▁Print	-10.9811
ger	-10.9812
▁धु	-10.9814
▁स्वामित्व	-10.9814
▁gift	-10.9814
▁notes	-10.9817
▁discipline	-10.9817
▁NAME	-10.9817
▁ad	-10.9821
ूत	-10.9822
▁Form	-10.9822
▁Port	-10.9822
▁hall	-10.9823
▁दक्षिणी	-10.9824
▁रिकार्ड	-10.9824
▁properly	-10.9827
▁prime	-10.9828
▁university	-10.9834
▁corruption	-10.9835
▁organized	-10.9838
▁चीजें	-10.9841
▁परसतिश	-10.9845
▁decisions	-10.9845
cle	-10.9845
▁मोह	-10.9849
▁depend	-10.985
60	-10.985
▁objectives	-10.9851
▁8.	-10.9851
▁effects	-10.9852
▁drugs	-10.9853
▁Yes	-10.9859
▁Jan	-10.9859
lex	-10.986
▁delay	-10.9863
▁कृपा	-10.9864
▁belonging	-10.9865
▁senior	-10.9865
▁यहूदी	-10.9865
▁साक्ष्य	-10.9866
ries	-10.9868
▁पैसे	-10.9868
▁organised	-10.9869
ko	-10.9872
▁कूट	-10.9873
▁पूछो	-10.9875
ग्न	-10.9878
▁अनाज	-10.9879
▁El	-10.9884
▁counsel	-10.9886
▁पीने	-10.9886
▁western	-10.9886
▁wills	-10.9886
▁परे	-10.9889
शाला	-10.9889
▁टाल	-10.9889
len	-10.9892
खंड	-10.9893
▁उपलब्धि	-10.9895
▁विद्यार्थी	-10.9896
▁पिछली	-10.9897
आख़िर	-10.9899
▁devotion	-10.9903
▁sand	-10.9903
▁rent	-10.9907
▁चौ	-10.9908
ns	-10.9912
▁Arab	-10.9914
▁समुचित	-10.9917
▁citizen	-10.9917
▁पदार्थों	-10.992
ग़रज़	-10.9922
▁conducted	-10.9922
▁आबादी	-10.9926
▁Economic	-10.9927
PC	-10.9929
▁wear	-10.9937
▁grateful	-10.9938
▁लेगा	-10.9939
▁Remember	-10.9939
▁1"	-10.9939
धीरे	-10.9943
▁train	-10.9946
▁agency	-10.9948
▁gather	-10.995
▁maintained	-10.995
▁solution	-10.9951
▁दरबार	-10.9952
▁settled	-10.9953
tes	-10.9956
▁उत्पादक	-10.9958
▁विष्णु	-10.9959
▁छू	-10.9966
▁Civil	-10.9968
▁afraid	-10.9969
▁संचालित	-10.9969
▁साझीदार	-10.9971
▁License	-10.9979
▁atmosphere	-10.9979
▁enemies	-10.9979
▁कमज़ोर	-10.9979
▁रिजर्व	-10.9979
hor	-10.9979
29	-10.9979
log	-10.9982
▁addressed	-10.9982
▁नस्ल	-10.9986
लाइन	-10.9991
▁क्र	-10.9992
CI	-10.9992
▁गहराई	-10.9993
▁Orissa	-11
▁configuration	-11
▁territory	-11
▁ब्राह्मण	-11.0001
▁तंग	-11.0001
▁thirty	-11.001
▁suddenly	-11.0015
▁स्टेशन	-11.0017
▁Pi	-11.0018
▁Industrial	-11.0019
▁centuries	-11.0021
ties	-11.0023
▁Server	-11.0028
AS	-11.0029
क्षण	-11.0031
▁bird	-11.0031
▁identified	-11.0031
▁1996	-11.0032
▁sends	-11.0033
▁transaction	-11.0033
tre	-11.0034
ृत	-11.0036
▁हाथी	-11.0038
▁comp	-11.0039
▁blue	-11.0042
▁डराने	-11.0044
▁मुल्क	-11.0044
▁गिरफ्तार	-11.0045
▁जनरल	-11.0046
▁stands	-11.0046
▁सवार	-11.0051
▁solar	-11.0051
▁छुटकारा	-11.0052
▁dedicated	-11.0054
▁Kha	-11.0061
▁जुड़ी	-11.0061
ॉल	-11.0064
िकी	-11.0065
▁blessed	-11.0073
▁मौलिक	-11.0073
▁शिक्षकों	-11.0074
▁noble	-11.0074
▁स्वभाव	-11.0074
▁didn	-11.0076
▁arms	-11.0081
▁सरपरस्त	-11.0084
oli	-11.0084
▁feature	-11.0086
07	-11.0086
ign	-11.0088
▁कामों	-11.0088
▁अर्ज़	-11.0089
▁प्रतिष्ठा	-11.0094
nga	-11.0095
▁सफलतापूर्वक	-11.0096
▁sh	-11.0096
▁Good	-11.01
▁Mughal	-11.0105
गुण	-11.0106
▁Environment	-11.0108
▁सामान्यतः	-11.0108
pos	-11.011
▁sat	-11.0111
▁pan	-11.0112
ope	-11.0115
▁ब्रिटेन	-11.0115
▁रवीन्द्रनाथ	-11.0115
▁तह	-11.012
▁विशेषज्ञ	-11.012
▁अर्	-11.0121
▁substance	-11.0122
▁medicine	-11.0124
▁आमंत्रित	-11.0126
▁1991	-11.0126
▁marketing	-11.0128
▁app	-11.0129
▁निकलने	-11.013
▁पोषण	-11.0131
▁revolution	-11.0135
▁eligible	-11.0141
▁ST	-11.0142
▁रहमान	-11.0143
▁fort	-11.0145
ect	-11.0145
▁font	-11.0146
▁plot	-11.0146
▁terrible	-11.0147
बिल	-11.0148
▁पुल	-11.0148
▁निभा	-11.0152
▁इनसे	-11.0153
▁sell	-11.0155
▁कराना	-11.0157
▁Flag	-11.0157
▁कोलकाता	-11.0157
▁पंडित	-11.0157
▁Middle	-11.0157
▁spot	-11.0158
▁झुक	-11.0159
tur	-11.016
▁खून	-11.0162
▁holds	-11.0163
EN	-11.0164
▁शु	-11.0164
▁helps	-11.0165
▁Choose	-11.0168
▁गर्व	-11.0169
▁मददगार	-11.0169
▁Ti	-11.017
▁इलाज	-11.0173
▁माने	-11.0173
▁Head	-11.0174
▁conscious	-11.0177
▁revenue	-11.0179
▁संग	-11.0181
त्य	-11.0182
▁designed	-11.0183
▁branches	-11.0183
क़ुरान	-11.0185
sp	-11.0189
other	-11.019
▁stars	-11.0191
▁बाग	-11.0196
ग्रस्त	-11.0197
AM	-11.02
ulation	-11.0201
▁metal	-11.0201
▁household	-11.0202
app	-11.0207
▁conceal	-11.0208
▁examples	-11.0208
▁End	-11.0209
▁मॉ	-11.021
▁environmental	-11.0211
▁closed	-11.0213
राव	-11.0213
▁pages	-11.0213
▁Whoever	-11.0213
▁ज़बान	-11.0216
▁छोड	-11.0217
▁इस्लामी	-11.0218
▁thoughts	-11.0218
▁Adam	-11.022
▁गोया	-11.022
▁स्मरण	-11.0221
▁Foundation	-11.0222
▁occur	-11.0223
▁4,	-11.0232
▁Although	-11.0232
▁threat	-11.0234
▁Regional	-11.0235
▁आसमानों	-11.0235
▁जानकर	-11.0235
▁electricity	-11.0243
▁संस्थापित	-11.0244
▁bond	-11.0245
▁finally	-11.0246
▁mere	-11.0248
▁contents	-11.025
▁आज्ञा	-11.0251
▁दरिया	-11.026
▁ob	-11.026
▁Ph	-11.0261
rous	-11.0265
▁प्रथा	-11.0267
न्ध	-11.0267
▁border	-11.0268
▁formation	-11.0269
▁aims	-11.0271
atic	-11.0275
▁motion	-11.0275
▁settlement	-11.0278
▁रानी	-11.0283
▁valley	-11.0285
▁प्रकाशना	-11.0287
08	-11.0288
▁tasks	-11.0291
▁सेक्टर	-11.0293
▁कमरे	-11.0296
▁buy	-11.0296
▁अन्तिम	-11.0296
▁मक्का	-11.0298
▁उद्देश्यों	-11.0299
▁मशीनरी	-11.03
bra	-11.03
▁employer	-11.0301
IR	-11.0302
सूर	-11.0305
▁bio	-11.0305
अनु	-11.0306
▁वारिस	-11.0307
▁इसपर	-11.031
▁respective	-11.0317
▁आरंभिक	-11.0318
▁उत्तरदायी	-11.0318
▁वैसा	-11.032
▁पहुंचने	-11.0321
▁sculpture	-11.0321
▁कोष	-11.0324
▁स्ट	-11.0326
▁reported	-11.0326
▁panel	-11.0326
▁सकी	-11.0327
▁liquid	-11.0328
▁किलोमीटर	-11.0328
▁बचाने	-11.033
▁thousands	-11.0331
▁band	-11.0333
▁Buddhist	-11.0339
▁चावल	-11.034
▁flowers	-11.0345
▁आपसे	-11.0346
af	-11.0347
▁identity	-11.035
▁creative	-11.035
▁आदम	-11.035
कै	-11.0352
एगा	-11.0352
च्च	-11.0353
”.	-11.0353
▁audit	-11.0359
ound	-11.0361
▁zero	-11.0361
▁आचरण	-11.0362
▁सिद्धांतों	-11.0363
▁सुर	-11.0369
िस्तान	-11.0374
▁पल	-11.0374
▁37	-11.0379
▁City	-11.0381
▁देशी	-11.0382
▁ज़कात	-11.0382
▁Speaker	-11.0384
▁uses	-11.0388
gri	-11.0392
▁marry	-11.0394
▁advanced	-11.0397
▁facts	-11.0398
▁cricket	-11.0404
▁संशोधित	-11.0404
▁दिमाग	-11.0404
rr	-11.0404
▁Best	-11.0405
▁hrs	-11.0405
वासियों	-11.0409
▁sold	-11.0413
▁आदत	-11.0413
ंडा	-11.0415
▁कर्ता	-11.0416
रन	-11.0418
pu	-11.0418
▁print	-11.0419
ख़बरी	-11.0423
▁Card	-11.0423
▁Association	-11.0426
▁category	-11.0426
rt	-11.0428
▁Windows	-11.0429
▁जातियों	-11.0429
▁पहाड़ी	-11.0433
▁रास्त	-11.0433
\	-11.0434
▁पौधे	-11.0434
ाइल	-11.0435
but	-11.0435
▁स्वप्न	-11.0437
▁president	-11.0437
gal	-11.0441
45	-11.0443
Assessing	-11.0447
▁Forest	-11.0448
▁बेल	-11.0448
▁fourth	-11.0448
▁ear	-11.0449
▁Ministers	-11.0449
▁committee	-11.0453
▁2018	-11.0457
▁Agriculture	-11.0458
▁अग्नि	-11.0459
▁अनुसूची	-11.0459
▁बहस	-11.0461
बत	-11.0463
AC	-11.0463
▁निकले	-11.0464
▁sexual	-11.0467
▁palace	-11.0469
▁1990	-11.047
▁Rural	-11.047
▁thereafter	-11.0471
यान	-11.0472
▁आमाल	-11.0472
▁dog	-11.0479
ada	-11.048
▁width	-11.048
▁recite	-11.0484
▁ईमानवाले	-11.0486
35	-11.0488
ील	-11.0488
▁अभिलाभ	-11.0488
▁क़रीब	-11.0489
▁Trust	-11.0491
▁आउटपुट	-11.0491
्टर	-11.0492
▁Link	-11.0492
▁दम	-11.0494
▁मासिक	-11.0495
▁flag	-11.0497
bu	-11.05
▁1000	-11.0502
CE	-11.0504
▁utter	-11.0508
▁fat	-11.0509
निर्देश	-11.051
▁इन्सान	-11.0513
▁झील	-11.0514
▁तापमान	-11.0514
▁Like	-11.0514
▁decree	-11.0515
▁digital	-11.0516
▁turning	-11.0518
▁prayers	-11.0522
▁whenever	-11.0523
▁occurred	-11.0524
ट्स	-11.0527
हि	-11.0529
▁मित्रों	-11.053
▁career	-11.0531
फे	-11.0534
▁Small	-11.0535
nam	-11.0536
▁बरस	-11.0538
▁hit	-11.0538
▁Video	-11.0539
▁चा	-11.054
ST	-11.0541
▁साइट	-11.0542
यल	-11.0543
[	-11.0544
▁हैदराबाद	-11.0546
▁pride	-11.0547
▁Nature	-11.0547
▁broken	-11.0548
▁उठे	-11.0549
▁दलील	-11.0552
ंघ	-11.0552
▁desktop	-11.0554
▁मानी	-11.0555
▁Chinese	-11.0557
▁Ji	-11.056
▁courage	-11.0563
▁judgement	-11.0565
▁प्रोजेक्ट	-11.0568
▁भर्ती	-11.0569
▁बीस	-11.0569
▁अत्याचार	-11.0569
▁बढ़ते	-11.0573
80	-11.0574
▁लिपि	-11.0577
▁लिखें	-11.0577
‘	-11.0586
▁Vice	-11.0586
▁temporary	-11.059
र्व	-11.0591
▁roof	-11.0591
▁सोने	-11.0592
▁09	-11.0594
▁rare	-11.0595
▁वर्णित	-11.0595
▁blame	-11.0603
▁बुलाया	-11.0604
्टी	-11.0605
गम	-11.0606
▁मानवता	-11.0611
▁Believers	-11.0613
75	-11.0613
▁observe	-11.0614
▁पुरुषों	-11.0617
▁receipt	-11.0619
▁require	-11.0619
▁बारह	-11.0619
▁processes	-11.0623
▁intention	-11.0632
ks	-11.0632
▁ऋ	-11.0635
▁Independence	-11.0637
06	-11.0637
ब्	-11.064
▁अत्याचारी	-11.0641
iz	-11.0643
▁formal	-11.0643
▁जुड़	-11.0645
▁penalty	-11.0646
▁1997	-11.0646
▁इसीलिए	-11.0646
▁लड़की	-11.0648
▁न्यायिक	-11.0648
▁Support	-11.0657
▁draft	-11.0657
▁गहरे	-11.0658
▁theory	-11.0661
▁देगी	-11.0661
table	-11.0662
▁analysis	-11.0668
▁तमिलनाडु	-11.0668
▁properties	-11.0668
▁बग	-11.0668
▁fi	-11.0673
▁farm	-11.0676
▁बाधा	-11.0678
▁pension	-11.0679
▁Ju	-11.068
aries	-11.0681
▁इनपुट	-11.0682
▁links	-11.0683
▁heads	-11.0687
▁elections	-11.0688
▁सकेगी	-11.0689
▁offices	-11.069
▁फज़ल	-11.069
▁जादूगर	-11.0692
ction	-11.0692
▁एकीकृत	-11.0692
▁capable	-11.0692
▁हिंदुस्तान	-11.0695
▁दूरस्थ	-11.0695
▁seemed	-11.0699
▁displayed	-11.0701
▁absence	-11.0701
▁narrow	-11.0701
▁समाहित	-11.0702
▁Eastern	-11.0702
▁अवि	-11.0705
▁earn	-11.0707
rum	-11.0708
▁arrived	-11.0709
▁palm	-11.071
▁तारा	-11.0712
▁chapter	-11.0713
▁virtue	-11.0713
▁शराब	-11.0713
▁era	-11.0713
▁Ben	-11.0714
▁42	-11.0715
मूल	-11.0715
▁समर्थ	-11.0719
▁इक	-11.0721
▁Files	-11.0722
▁पोजीशन	-11.0724
▁सिंचाई	-11.0724
▁महाभारत	-11.0726
▁undertaken	-11.0726
ाइ	-11.0729
लिन	-11.0731
▁costs	-11.0734
सल	-11.0735
▁disbelief	-11.0735
▁सिखा	-11.0735
▁तुर्की	-11.0736
ज़र	-11.0737
ila	-11.0738
▁अक्ष	-11.074
▁functioning	-11.0742
▁वापसी	-11.0747
▁Ver	-11.075
▁tube	-11.0751
▁प्रसन्न	-11.0751
▁जापान	-11.0752
▁उच्चतर	-11.0752
lat	-11.0753
▁खनिज	-11.0757
▁कम्प्यूटर	-11.0757
▁परिवेश	-11.0758
▁सम्मानित	-11.0758
▁coal	-11.0762
▁जायेंगे	-11.0763
ाते	-11.0764
▁अम	-11.0768
▁सम्भव	-11.0768
▁2019	-11.0769
णा	-11.077
▁#-#-#-#-#	-11.078
▁Judgment	-11.078
▁ज़रिए	-11.078
ell	-11.078
▁वाक़िफ	-11.0781
▁accused	-11.0782
▁Unit	-11.0782
पै	-11.0782
▁Signs	-11.0788
▁treat	-11.0789
▁हाज़िर	-11.0791
pen	-11.0796
▁sick	-11.0798
पित	-11.0799
▁cow	-11.0804
▁launch	-11.0807
▁informed	-11.0807
▁install	-11.0808
पात	-11.0811
▁सतत	-11.0812
▁Settings	-11.0813
आख़ेरत	-11.0814
▁सकारात्मक	-11.0814
▁Divine	-11.0814
ole	-11.0814
▁Babu	-11.0815
▁एहद	-11.0815
▁समितियों	-11.0819
▁गेंद	-11.082
हरी	-11.0823
▁Principal	-11.0825
▁अभ्यास	-11.0825
▁शैक्षणिक	-11.0825
▁immense	-11.0825
▁पंख	-11.0829
ंडी	-11.0831
tt	-11.0832
▁horse	-11.0834
मू	-11.0836
dge	-11.0836
rc	-11.0836
▁tomorrow	-11.0836
▁परिभाषा	-11.0837
डु	-11.0838
चित्र	-11.0841
▁बहादुर	-11.0842
▁bottom	-11.0848
▁sorrow	-11.0848
सीसी	-11.0848
▁Key	-11.0856
▁song	-11.0857
▁bridge	-11.0858
▁Options	-11.0859
▁अकेला	-11.0859
▁विभेद	-11.086
▁परत	-11.0864
▁दावे	-11.0867
▁employee	-11.0868
समझ	-11.0869
▁possession	-11.087
▁applicable	-11.087
▁Sc	-11.0871
▁साझी	-11.0871
▁निकालने	-11.0872
▁धो	-11.0872
ंभ	-11.0872
पाद	-11.0874
▁acid	-11.0875
िस्ट	-11.0876
▁महाराजा	-11.0878
▁compensation	-11.0882
▁fifty	-11.0882
▁साहब	-11.0882
▁सैन्य	-11.0882
gin	-11.0884
▁(2	-11.0885
▁favor	-11.089
परि	-11.0891
▁1'	-11.0892
▁client	-11.0894
▁पाल	-11.0894
ET	-11.0895
▁नवम्बर	-11.0905
▁2)	-11.0905
▁संदेय	-11.0905
▁Local	-11.0906
▁Limited	-11.0908
धन	-11.0913
▁expenses	-11.0913
▁Sea	-11.0913
ations	-11.0914
▁cap	-11.0915
▁Schedule	-11.0918
▁चमक	-11.092
▁पाता	-11.0921
▁दर्जे	-11.0923
&	-11.0924
▁apostle	-11.0925
▁mostly	-11.0926
▁mu	-11.0927
▁ce	-11.0927
▁पोत	-11.0927
▁अना	-11.0931
▁कुफ्र	-11.0933
▁deity	-11.0939
▁bright	-11.0939
▁अमरीकी	-11.0939
▁database	-11.0939
▁cool	-11.0943
▁रखकर	-11.0947
▁तैयारी	-11.0948
▁Narendra	-11.095
form	-11.095
▁Hyderabad	-11.095
▁एहसान	-11.095
▁markets	-11.0954
▁replace	-11.0955
▁Bangladesh	-11.0955
▁obtain	-11.0956
▁तरीकों	-11.0956
▁अभिदाता	-11.096
▁losers	-11.0963
▁मानता	-11.0967
▁ba	-11.0969
osis	-11.0973
▁अवज्ञा	-11.0973
▁French	-11.0973
▁सहारा	-11.0974
▁prostrate	-11.0975
▁जायें	-11.0976
ैल	-11.0976
ब्ब	-11.0978
▁उत्पा	-11.0981
▁sa	-11.0982
▁Ku	-11.0983
▁शानदार	-11.0985
48	-11.0986
तुम्हारे	-11.0986
कन	-11.0986
▁Swami	-11.0987
▁लंबाई	-11.0988
▁वाणिज्य	-11.0989
vers	-11.0991
▁व्यस्त	-11.0995
▁Just	-11.0995
▁Para	-11.0997
▁outstanding	-11.0998
▁भंग	-11.0999
▁Nations	-11.0999
nagar	-11.1
ivity	-11.1004
▁जैन	-11.1005
▁Take	-11.1007
▁Char	-11.1007
▁sad	-11.1009
▁loans	-11.1009
▁aside	-11.1013
ins	-11.1015
▁sustenance	-11.1019
▁हस्तक्षेप	-11.1019
▁Subhas	-11.102
▁कीजिए	-11.102
▁विक्रय	-11.1021
▁humanity	-11.1021
▁span	-11.1023
▁flower	-11.1027
▁fulfilled	-11.1028
▁हटाएँ	-11.1033
▁वैज्ञानिकों	-11.1033
▁organizations	-11.1034
IP	-11.1035
▁अंग्रेज	-11.1036
▁प्रत्या	-11.1038
▁Tab	-11.1039
▁movements	-11.1041
▁मुद्दे	-11.1042
▁स्तन	-11.1043
▁automatically	-11.1043
▁Food	-11.1044
▁Trade	-11.1047
▁poets	-11.105
ैन	-11.1052
part	-11.1053
▁architecture	-11.1054
▁Awards	-11.1058
▁girls	-11.1059
27	-11.106
▁ढूंढें	-11.106
▁differences	-11.1061
NT	-11.1064
▁represents	-11.1065
▁burn	-11.1066
lay	-11.107
▁mine	-11.107
▁प्रसाद	-11.1071
shan	-11.1072
▁पू	-11.1073
▁पुकारा	-11.1075
▁Word	-11.1076
▁Apostle	-11.1077
▁आकलन	-11.1077
▁कायम	-11.1077
▁civilization	-11.1078
▁bi	-11.1079
▁leads	-11.1079
▁Das	-11.1081
▁simply	-11.1089
▁प्रसंस्करण	-11.1089
▁Light	-11.1091
hat	-11.1093
55	-11.1094
shed	-11.1095
▁65	-11.1096
चाल	-11.1099
31	-11.1099
oon	-11.1099
▁डालें	-11.1101
▁Bad	-11.1102
▁प्रतिफल	-11.1104
टिक	-11.1105
▁slow	-11.1105
▁explain	-11.1105
▁extremely	-11.1106
▁फट	-11.1106
▁बोलते	-11.111
▁sister	-11.1112
▁opposition	-11.1112
▁steel	-11.1112
▁Sardar	-11.1113
▁runs	-11.1115
टिंग	-11.1119
▁resident	-11.112
▁plans	-11.1122
र्ग	-11.1122
▁तकलीफ	-11.1123
▁proposal	-11.1123
▁Chrome	-11.1124
▁सम्पत्ति	-11.1124
▁Persian	-11.1126
▁अभिगम	-11.1126
▁apostles	-11.1127
▁प्रक्रियाओं	-11.1127
ंडर	-11.1128
▁deeply	-11.113
ological	-11.113
▁customer	-11.113
ray	-11.1132
▁Te	-11.1132
▁Jo	-11.1133
गार	-11.1133
▁Current	-11.1133
्ला	-11.1135
ire	-11.1135
▁Museum	-11.1135
▁Password	-11.1135
▁deleted	-11.1137
ाब	-11.1137
▁औरतें	-11.1141
खी	-11.1141
▁शोर	-11.1147
▁2016)	-11.1147
▁संतुलन	-11.1147
▁prior	-11.1148
्ज़	-11.1148
▁उतनी	-11.1148
▁Madhya	-11.1149
तब	-11.1149
▁पंच	-11.1158
ular	-11.1158
▁mandapa	-11.1159
▁रिकॉर्ड	-11.1159
▁व्यवस्थित	-11.1159
▁entirely	-11.116
▁प्रतिकूल	-11.116
▁1980	-11.1161
▁रुक	-11.1163
▁डो	-11.1164
▁संधि	-11.1168
hara	-11.1169
▁cha	-11.1169
▁wrongdoers	-11.1171
▁दाहिने	-11.1171
ese	-11.1172
▁मार्क	-11.1177
नियम	-11.118
▁निकाले	-11.1186
▁गतिविधि	-11.1186
वाँ	-11.1186
cr	-11.1186
▁उभर	-11.1192
▁fo	-11.1192
▁रचनात्मक	-11.1195
PS	-11.1195
▁creatures	-11.1196
▁equally	-11.1197
▁जोड़े	-11.1199
▁Mode	-11.1202
▁पदों	-11.1203
▁ga	-11.1205
विक	-11.1209
▁शो	-11.1209
शर	-11.1212
लंब	-11.1217
▁अंकित	-11.1217
ua	-11.1217
▁Award	-11.1218
▁ease	-11.1221
▁विनय	-11.1221
▁gl	-11.1223
हरा	-11.1224
▁cur	-11.1224
des	-11.1225
▁सन	-11.1229
▁उल्लिखित	-11.1229
▁Che	-11.1232
▁chargeable	-11.1235
▁आद	-11.1235
under	-11.1235
▁9.	-11.1236
▁distinguished	-11.1236
▁refused	-11.1237
पल	-11.1238
▁descend	-11.1241
▁infection	-11.1241
▁debate	-11.1241
वही	-11.1243
बोध	-11.1244
fully	-11.1244
▁update	-11.1244
▁कोशिकाओं	-11.1244
▁रहस्य	-11.1245
▁starting	-11.1249
▁Scheduled	-11.1251
▁प्रतिदिन	-11.1256
▁कारक	-11.1259
▁प्रांत	-11.126
old	-11.1261
लाल	-11.1263
स्त्र	-11.1264
▁ढांचा	-11.1264
▁सच्ची	-11.1265
▁calling	-11.1265
ock	-11.1265
▁पाये	-11.1267
that	-11.127
▁मिश्रण	-11.1273
▁Related	-11.1277
▁पथभ्रष्ट	-11.1277
▁composed	-11.1278
▁मृत	-11.128
▁डालते	-11.1281
▁fee	-11.1281
▁walls	-11.1284
▁कृति	-11.1284
▁कलाकार	-11.1286
▁बोला	-11.1286
▁council	-11.1288
मैन	-11.1291
lt	-11.1293
राष्ट्रीय	-11.1293
▁danger	-11.1294
▁chain	-11.13
▁flat	-11.1301
▁directed	-11.1306
▁attend	-11.1308
उसके	-11.131
TA	-11.1311
Who	-11.1312
▁Kolkata	-11.1312
▁श्वेत	-11.1312
▁Garden	-11.1313
33	-11.1314
▁initiated	-11.1315
HA	-11.1317
▁Micro	-11.1322
▁Th	-11.1322
श्	-11.1323
▁सम्राट	-11.1324
▁समुदायों	-11.1324
▁जंगल	-11.1325
▁मसल	-11.1327
▁दर्शाता	-11.1328
ook	-11.1335
▁wicked	-11.1336
▁respite	-11.1336
LO	-11.1337
▁परिचित	-11.1337
▁heed	-11.1339
▁Pacific	-11.134
▁Editor	-11.1343
▁सद	-11.1346
▁contributions	-11.135
प्रद	-11.1351
▁१५	-11.1351
▁wherever	-11.1353
भूमि	-11.1355
▁bone	-11.1356
▁हलाल	-11.1362
दिन	-11.1364
▁quickly	-11.1366
▁Mohammed	-11.1369
▁Art	-11.1369
ल्ला	-11.137
▁Further	-11.1372
▁violent	-11.1372
▁equity	-11.1372
़त	-11.1373
pan	-11.1373
▁मिस्र	-11.1378
▁जीन	-11.1378
▁core	-11.138
▁याची	-11.138
ानु	-11.138
▁1987	-11.1384
▁tourism	-11.1385
▁deed	-11.1386
tric	-11.1387
▁Sen	-11.1388
वत्	-11.139
▁transactions	-11.1394
▁मंजूरी	-11.1396
▁1993	-11.1396
▁अंतः	-11.1401
कर्ताओं	-11.1401
लिक	-11.1404
▁प्रयोक्ता	-11.1405
▁कक्षा	-11.1407
▁Bu	-11.1408
▁Except	-11.1408
▁tongue	-11.141
▁काश	-11.141
▁tools	-11.141
▁speaking	-11.1411
▁Jesus	-11.1413
▁Joint	-11.1416
)]	-11.1419
गढ़	-11.1419
▁Software	-11.142
▁Industry	-11.142
▁पीड़ित	-11.1422
▁मोड़	-11.1422
ऑ	-11.1426
▁ग्राहकों	-11.1426
थे	-11.1427
can	-11.1429
PRODUCT	-11.1432
▁Deputy	-11.1432
▁twelve	-11.1432
▁खतरे	-11.1432
▁ढेर	-11.1434
नहीं	-11.1437
▁constitution	-11.144
▁offers	-11.1441
MS	-11.1441
▁रखती	-11.1443
che	-11.1444
▁अलबत्ता	-11.1444
▁scope	-11.1444
▁railway	-11.1446
bin	-11.1447
▁गांधीजी	-11.145
▁बडी	-11.1451
यत	-11.1451
▁43	-11.1453
▁willed	-11.1454
▁Play	-11.1455
▁promoting	-11.1456
▁comprehensive	-11.1456
▁signature	-11.1456
▁व्यष्टि	-11.1456
िज़	-11.1457
▁clay	-11.1457
ूद	-11.146
ric	-11.146
क्शन	-11.1462
ili	-11.1462
▁लंबा	-11.1465
59	-11.1466
▁Status	-11.1468
▁beneath	-11.1468
▁fought	-11.1468
▁Source	-11.1468
▁47	-11.1468
▁Temple	-11.1469
34	-11.1469
मक	-11.147
▁finding	-11.1471
वो	-11.1471
▁वास्तविकता	-11.1472
लिस	-11.1479
▁download	-11.148
▁आह्वान	-11.148
तसबीह	-11.148
▁aspect	-11.1483
▁Mon	-11.1483
मुझे	-11.1485
▁उड़	-11.1487
▁Urdu	-11.1492
▁गौरव	-11.1493
▁sustainable	-11.1493
▁explained	-11.1494
▁org	-11.1494
▁ऊ	-11.1494
▁teach	-11.1497
▁lu	-11.1501
ear	-11.1504
▁लानत	-11.1505
▁admitted	-11.1505
▁Has	-11.1506
सूचना	-11.1509
▁arm	-11.151
▁नामः	-11.1511
name	-11.1512
▁सीखने	-11.1513
▁hypocrites	-11.1514
▁असली	-11.1517
▁hill	-11.1519
▁cease	-11.1519
▁बर्फ	-11.152
ॉट	-11.1526
▁चिकित्सक	-11.1527
पू	-11.1528
िमा	-11.1528
▁सुन्दर	-11.1529
▁rising	-11.1529
▁recognize	-11.1531
▁distinct	-11.1534
वर्त	-11.1535
ीस	-11.1536
▁राहे	-11.1536
नगर	-11.1537
▁exceed	-11.1538
▁recited	-11.1539
▁Insurance	-11.1541
▁माइक्रो	-11.1541
▁आरक्षित	-11.1541
▁remaining	-11.1542
मै	-11.1543
सद	-11.1543
▁टिकट	-11.1544
▁reaction	-11.1546
▁कर्ण	-11.1547
▁Lu	-11.1552
▁instructions	-11.1553
▁leaving	-11.1553
▁भाष्	-11.1553
▁क्रमशः	-11.1554
▁Iran	-11.1554
▁होटल	-11.1556
ef	-11.1562
ाइन	-11.1563
▁wild	-11.1565
▁Something	-11.1565
▁pane	-11.1565
▁sugar	-11.1565
▁towns	-11.1566
▁कार्बन	-11.1566
▁Sign	-11.1569
sur	-11.157
▁पान	-11.157
▁55	-11.1575
▁Later	-11.1576
▁glory	-11.1577
▁KDE	-11.1578
प्ट	-11.1579
▁prepare	-11.158
▁2015)	-11.1583
▁discuss	-11.1586
▁स्टेट	-11.1587
▁ग्राफ	-11.1588
▁Credit	-11.1589
......	-11.159
▁श्रीमती	-11.159
स्तर	-11.1591
tle	-11.1592
▁invited	-11.1598
▁floor	-11.1601
▁उत्सव	-11.1601
▁चैतन्य	-11.1601
▁घेर	-11.1604
▁Table	-11.1606
▁pu	-11.1608
▁owner	-11.161
▁leg	-11.1611
ोत्	-11.1611
दादा	-11.1612
▁attain	-11.1613
▁Filter	-11.1614
▁recognition	-11.1614
▁जितने	-11.1614
▁interface	-11.1614
▁क़ाबू	-11.1614
▁प्रशांत	-11.1615
▁पुष्प	-11.1615
▁bug	-11.1616
▁आदमियों	-11.1617
▁Action	-11.162
▁attract	-11.1621
▁Test	-11.1622
▁evolution	-11.1623
▁प्रतिमा	-11.1625
▁LDAP	-11.1626
▁acquisition	-11.1626
▁1986	-11.1626
भू	-11.1626
das	-11.1627
वेल	-11.163
▁governments	-11.1632
pati	-11.1632
▁प्रश्नों	-11.1633
▁5,	-11.1638
▁डिग्री	-11.1638
▁घनिष्ठ	-11.1639
▁प्रजनन	-11.1639
▁संभवतः	-11.164
▁affair	-11.1642
▁tissue	-11.1642
▁tu	-11.1644
▁अमरीका	-11.1651
खे	-11.1651
▁stones	-11.1651
▁यानी	-11.1652
▁pur	-11.1653
▁प्रभार्य	-11.1654
▁लगाते	-11.1658
▁happens	-11.1658
▁respectively	-11.1659
▁अल्	-11.1659
▁Christians	-11.1661
▁bones	-11.1662
▁अनुमोदित	-11.1663
▁प्रासंगिक	-11.1663
▁मजबूर	-11.1663
▁thread	-11.1663
▁1995	-11.1663
▁विवेक	-11.1664
▁stick	-11.1664
ाओं	-11.1664
hana	-11.1666
▁immediate	-11.1668
▁आधा	-11.1671
▁गुणों	-11.1672
जात	-11.1673
▁soldiers	-11.1674
On	-11.1675
▁salt	-11.1675
▁एजेंसी	-11.1675
▁Siva	-11.1677
▁पुस्तकें	-11.1678
ज़े	-11.1679
▁पृथक	-11.1679
ांक	-11.168
▁घड़	-11.1682
▁refer	-11.1685
▁holy	-11.1686
▁स्तरों	-11.1687
▁व्यावहारिक	-11.1687
▁backs	-11.1688
▁सूचित	-11.1689
IM	-11.169
उनकी	-11.169
II	-11.1692
▁radio	-11.1692
▁शांत	-11.1695
▁उड़ा	-11.1697
▁जर्मनी	-11.1698
▁Bas	-11.1699
36	-11.17
▁संपन्न	-11.17
▁क्रेडिट	-11.17
▁venture	-11.1701
्ग	-11.1702
▁Look	-11.1703
▁लेबल	-11.171
▁enhance	-11.1712
▁twice	-11.1712
▁liberal	-11.1712
▁फायदे	-11.1712
▁कैसी	-11.1717
ob	-11.1718
विधि	-11.1723
▁व्यापारी	-11.1725
▁depth	-11.1725
▁satisfied	-11.1725
dev	-11.173
▁03	-11.1731
▁dwell	-11.1733
▁पं	-11.1736
▁सिद्धान्त	-11.1738
▁respondent	-11.1738
▁drawing	-11.1738
▁differ	-11.1744
▁विभागों	-11.1748
▁telephone	-11.1749
▁अतीत	-11.175
▁टाइप	-11.1751
▁विवरणी	-11.1755
▁grain	-11.1755
▁पुकारते	-11.1756
▁asking	-11.1759
▁संलग्नक	-11.1759
▁शासक	-11.176
▁सलाहकार	-11.176
▁सम्बन्धित	-11.176
▁Judge	-11.176
▁overall	-11.1761
▁suggest	-11.1761
▁crisis	-11.1762
▁murder	-11.1762
▁चलाया	-11.1762
▁क़ादिर	-11.1762
▁डाय	-11.1763
▁फरमा	-11.1763
▁invalid	-11.1764
▁रोगों	-11.1765
▁Noble	-11.1766
▁adult	-11.1767
▁हां	-11.1768
▁घाट	-11.177
घात	-11.1772
▁verse	-11.1773
रान	-11.1774
70	-11.1774
▁cloth	-11.1776
▁domain	-11.1776
dent	-11.1777
▁Ob	-11.1779
पैग़म्बरों	-11.1781
illa	-11.1781
▁डरा	-11.1782
▁लेखकों	-11.1784
धारी	-11.1785
▁preparation	-11.1787
▁किन्हीं	-11.1787
▁प्राधिकृत	-11.1787
▁एयर	-11.1787
▁पाप	-11.1788
ew	-11.1788
▁overcome	-11.1789
▁परा	-11.179
▁पक्षी	-11.1794
र्प	-11.1796
▁करवा	-11.1796
यम	-11.1799
▁भौगोलिक	-11.1799
▁contemporary	-11.1799
▁framework	-11.1799
res	-11.18
▁निधन	-11.18
▁du	-11.1803
▁दक्षता	-11.1804
▁prose	-11.1804
▁component	-11.1804
like	-11.1805
abad	-11.1806
pat	-11.1806
ख्वाह	-11.1807
▁ईरान	-11.1808
LA	-11.1808
▁behaviour	-11.1812
▁index	-11.1812
▁गद्य	-11.1813
▁सूर	-11.1815
▁संपदा	-11.1818
▁parent	-11.1818
ाउ	-11.1821
▁icon	-11.1821
▁writers	-11.1822
▁जवाहरलाल	-11.1824
▁Japan	-11.1824
▁sheet	-11.1825
▁Col	-11.1826
▁drinking	-11.1828
▁enjoyment	-11.183
▁curse	-11.1833
ाबाद	-11.1833
छा	-11.1837
▁Calendar	-11.1837
▁राजभाषा	-11.1837
▁detailed	-11.1837
▁initial	-11.1838
▁divide	-11.1839
▁वसूली	-11.184
▁विद्वानों	-11.1843
▁exports	-11.1849
▁{1}	-11.1849
▁उपायों	-11.1849
▁1988	-11.185
▁drug	-11.1852
ुम	-11.1854
रियों	-11.1856
▁Green	-11.1856
▁400	-11.1857
uring	-11.1859
NS	-11.1863
मह	-11.1864
▁Com	-11.1865
▁ग्रस्त	-11.1867
▁inspiration	-11.1868
mor	-11.187
▁arch	-11.1871
▁एकदम	-11.1873
▁प्रोटोकॉल	-11.1874
▁lamp	-11.1877
▁न्यायालयों	-11.1878
▁noted	-11.1878
▁Member	-11.188
▁लिखते	-11.1881
Indeed	-11.1882
-2	-11.1882
▁भगवान्	-11.1884
▁भु	-11.1886
▁प्रोफेसर	-11.1887
▁अर्पित	-11.1888
kan	-11.1888
ker	-11.189
▁भरें	-11.1891
▁lying	-11.1892
▁revelation	-11.1893
▁employed	-11.1894
▁em	-11.1897
▁2019)	-11.1899
▁आंशिक	-11.1899
▁answered	-11.1902
▁कहां	-11.1903
▁लहर	-11.1903
दारी	-11.1904
▁personality	-11.1905
lar	-11.1906
Be	-11.1909
▁intelligence	-11.1912
▁लोकतांत्रिक	-11.1912
▁विज्ञप्ति	-11.1912
▁trading	-11.1912
▁availability	-11.1913
▁हज़ार	-11.1913
▁Army	-11.1915
▁distributed	-11.1915
nc	-11.1915
▁consumer	-11.192
▁BAR	-11.1922
रम	-11.1925
▁Log	-11.1926
ज्ज	-11.1927
▁bus	-11.1927
▁उर्दू	-11.193
▁असल	-11.1935
▁understood	-11.1937
▁टर्मिनल	-11.1937
▁socio	-11.194
▁खबर	-11.194
gam	-11.1942
▁ratio	-11.1943
▁stayed	-11.1944
▁Global	-11.195
▁सचमुच	-11.195
▁profile	-11.195
▁प्रस्तावित	-11.1951
▁वर्मा	-11.1952
▁उतारी	-11.1955
▁communal	-11.1956
▁neck	-11.1957
▁मज़बूत	-11.1958
Moses	-11.1958
▁assist	-11.1962
▁गंतव्य	-11.1963
▁affect	-11.1963
▁jail	-11.1965
▁alarm	-11.1968
▁घुस	-11.197
▁Author	-11.1973
▁नाक	-11.1973
▁38	-11.1974
▁pieces	-11.1977
90	-11.1981
क्ट	-11.1981
▁51	-11.1982
{	-11.1984
▁communications	-11.1984
वर्ग	-11.1985
▁हजारों	-11.1988
▁depends	-11.1988
▁circle	-11.1988
▁अक्टूबर	-11.1988
▁पारस्परिक	-11.1988
▁फलस्वरूप	-11.1988
▁preview	-11.1988
▁appearance	-11.1989
▁शिल्प	-11.1991
action	-11.1992
reg	-11.1994
▁intended	-11.1994
▁jinn	-11.1995
▁guardian	-11.1996
▁legs	-11.1997
▁firmly	-11.2001
▁RE	-11.2001
▁संगणना	-11.2002
▁Email	-11.2002
▁Lal	-11.2004
रुप	-11.2005
ini	-11.2005
ush	-11.2006
own	-11.2006
▁ऑफ़	-11.2007
▁लिखना	-11.2008
▁equality	-11.201
▁निशान	-11.2011
▁टैग	-11.2012
▁वृत्ति	-11.2013
▁thick	-11.2014
▁छाप	-11.2018
शासन	-11.2019
ीम	-11.2022
uck	-11.2022
▁Fi	-11.2022
▁flood	-11.2026
▁अखिल	-11.2026
▁हिमाचल	-11.2026
ञ	-11.2027
▁\	-11.2029
atory	-11.2029
low	-11.203
▁arrangement	-11.2034
▁Mor	-11.2035
▁वृ	-11.2035
▁subscribe	-11.2036
▁ब्ल	-11.2037
▁electronic	-11.2039
back	-11.2039
▁judicial	-11.2039
▁फोल्डर	-11.2039
▁arising	-11.2039
▁shade	-11.204
▁सर्विस	-11.204
▁camp	-11.2041
ool	-11.2042
रहित	-11.2042
▁गर्मी	-11.2045
▁desired	-11.2046
▁Tell	-11.2048
▁Mag	-11.2049
▁Nar	-11.205
ूस	-11.2051
▁गण	-11.2052
▁नदियों	-11.2052
▁Ac	-11.2052
NG	-11.2052
▁Wa	-11.2052
▁अर्जन	-11.2053
▁charity	-11.2053
प्स	-11.2053
▁ver	-11.2055
▁hardly	-11.2055
▁उठाना	-11.2056
▁invite	-11.2057
down	-11.2059
▁celebrated	-11.206
▁Ask	-11.206
▁shaped	-11.206
▁alive	-11.2063
िप	-11.2063
▁Gi	-11.2063
▁regarded	-11.2064
▁दीजिए	-11.2065
▁diverse	-11.2065
▁पुराना	-11.2066
▁interpretation	-11.2066
▁अधिकारिता	-11.2067
स्य	-11.2068
▁derived	-11.2069
सिंह	-11.2074
▁Gupta	-11.2077
▁evident	-11.2077
▁आशय	-11.2078
▁hardship	-11.2079
ography	-11.2082
▁इल	-11.2087
▁शेयरों	-11.2087
तुल	-11.2088
▁प्लस	-11.2088
▁कुदरत	-11.2089
▁खुल	-11.209
IL	-11.209
▁गर्दन	-11.209
▁अस्वीकार	-11.209
▁आंकड़ा	-11.209
▁(18	-11.2091
▁हकदार	-11.2093
▁जागरूकता	-11.2095
▁ज़रूरत	-11.2096
▁वैकल्पिक	-11.2097
▁कुशलता	-11.21
Why	-11.21
▁डालने	-11.2103
▁competition	-11.2103
▁computing	-11.2103
▁इकाइयों	-11.2103
▁आधारभूत	-11.2106
▁हमे	-11.2107
▁edge	-11.2109
▁Due	-11.2111
ley	-11.2112
▁बोध	-11.2115
▁Legislature	-11.2116
▁बाँध	-11.2116
▁clouds	-11.2116
▁शरण	-11.2122
▁pot	-11.2124
▁दशकों	-11.2128
▁solutions	-11.2128
▁रामायण	-11.2129
▁Record	-11.213
▁Himself	-11.213
▁मंगल	-11.2131
▁झूठे	-11.2133
▁अपराधी	-11.2135
pal	-11.2135
▁forbid	-11.2136
▁translated	-11.2137
nia	-11.2138
▁सीता	-11.214
▁ड्राइव	-11.2144
▁urge	-11.2145
rit	-11.215
▁quick	-11.215
▁धा	-11.2151
▁ट्यूब	-11.2151
▁दिखायें	-11.2153
▁sisters	-11.2155
▁निगाह	-11.2155
▁विनाश	-11.2157
▁लड़का	-11.2158
bul	-11.2161
▁कहे	-11.2163
▁driven	-11.2163
▁servant	-11.2163
फरिश्ते	-11.2168
▁वैदिक	-11.2168
▁difficulty	-11.2169
▁औरत	-11.2172
▁outer	-11.2175
धारा	-11.2177
▁cycle	-11.2181
णी	-11.2181
▁POP	-11.2184
▁देशवासियों	-11.2185
▁चलती	-11.2185
▁defend	-11.2187
kara	-11.2188
▁प्रभु	-11.2188
▁डाली	-11.219
▁अनुक्रम	-11.2191
ok	-11.2194
▁वर्	-11.2194
▁strategy	-11.2194
लय	-11.2194
▁बेटों	-11.2194
OL	-11.2196
▁पूर्ववर्ती	-11.22
▁भांति	-11.2201
ming	-11.2202
▁eggs	-11.2202
▁07	-11.2203
▁Sita	-11.2203
ras	-11.2206
▁दिसम्बर	-11.2207
▁guidelines	-11.2207
▁switch	-11.2207
▁पनाह	-11.2207
▁बेस	-11.2207
▁lock	-11.2208
▁जाया	-11.221
ero	-11.221
▁interested	-11.2211
ाध	-11.2211
▁54	-11.2213
vel	-11.2213
To	-11.2214
▁continues	-11.2215
▁Center	-11.2216
▁detail	-11.2216
▁Second	-11.2217
▁Anjuta	-11.222
▁accurate	-11.222
▁ईंधन	-11.222
▁जू	-11.222
▁worshipped	-11.2222
▁आपसी	-11.2223
उसकी	-11.2227
▁Window	-11.2229
▁ships	-11.2231
▁व्याख्यान	-11.2231
▁achievement	-11.2232
▁कार्यरत	-11.2232
▁executive	-11.2233
▁suggested	-11.2234
▁ties	-11.2234
▁परिस्थिति	-11.2234
▁दूँगा	-11.2234
▁Order	-11.2234
▁बालक	-11.2238
▁काला	-11.224
▁Plugin	-11.2241
भव	-11.2242
▁विद्या	-11.2243
▁efficiency	-11.2246
▁पसंदीदा	-11.2246
हट	-11.2247
▁सजा	-11.2248
til	-11.2248
▁auto	-11.2253
▁constitute	-11.2253
ंठ	-11.2254
▁Ge	-11.2255
ane	-11.2256
▁वेद	-11.2258
▁प्रतिबंध	-11.2258
▁संगठित	-11.2259
▁होगे	-11.2259
▁Size	-11.226
क़ी	-11.2261
bal	-11.2262
▁sees	-11.2263
▁Friends	-11.2263
बहुत	-11.2264
▁पड	-11.2269
▁collected	-11.227
▁seeds	-11.2272
▁loose	-11.2272
किस	-11.2273
▁Shi	-11.2276
▁dialog	-11.2285
▁improving	-11.2285
▁budget	-11.2285
▁naught	-11.2285
▁j	-11.2288
▁होगें	-11.2288
▁Land	-11.2291
▁वार	-11.2292
title	-11.2293
▁बनना	-11.2295
▁excess	-11.2297
▁prominent	-11.2298
▁अधिसूचित	-11.2298
▁preferred	-11.2298
क्र	-11.2299
▁दाम	-11.2299
▁घास	-11.23
book	-11.23
▁declare	-11.23
▁मचा	-11.23
▁रूपों	-11.2302
▁सकल	-11.2302
comp	-11.2304
▁estimated	-11.2306
▁Palestinian	-11.2308
▁roads	-11.2309
▁परम्परा	-11.2311
▁चैन	-11.2311
▁नज़दीक	-11.2311
76	-11.2314
▁arrive	-11.2315
ज्ञान	-11.2315
▁निपटान	-11.2316
▁बहन	-11.2318
▁mid	-11.2319
▁fail	-11.2323
▁बिन्दु	-11.2323
गामी	-11.2323
थर	-11.2325
▁आतंकवादी	-11.2331
▁उन्होनें	-11.2333
▁te	-11.2336
जिस	-11.2337
▁करेंः	-11.2337
▁तमिल	-11.2339
बन्ध	-11.234
▁busy	-11.2342
▁संभाल	-11.2345
TE	-11.2346
▁भि	-11.2347
▁succeed	-11.2347
▁Pat	-11.2348
▁योजनाएं	-11.2348
▁Manager	-11.2351
▁numerous	-11.2351
▁repentance	-11.2351
▁सिरे	-11.2352
▁कू	-11.2352
▁discussed	-11.2352
▁शास्त्र	-11.2352
▁ISO	-11.2352
ition	-11.2353
▁chemical	-11.2354
▁निदेश	-11.2354
▁fa	-11.2356
▁traditions	-11.2357
म्म	-11.2358
▁सहयोगी	-11.2361
▁MA	-11.2362
▁Main	-11.2362
▁Afghanistan	-11.2364
▁गुलाम	-11.2364
श्र	-11.2367
▁अपनाने	-11.2367
तू	-11.237
भि	-11.2375
nes	-11.2375
▁def	-11.2376
▁महत्त्व	-11.2376
▁collaboration	-11.2377
▁expansion	-11.2377
▁गारंटी	-11.2377
▁फसलों	-11.238
ेंस	-11.238
▁customers	-11.238
▁Hi	-11.238
▁उपलब्धता	-11.2382
dd	-11.2383
OS	-11.2383
▁David	-11.2384
▁Mi	-11.2385
हरे	-11.2387
▁खेत	-11.2388
▁इमारत	-11.2388
▁Being	-11.2389
▁हटाने	-11.2389
▁सत्यापित	-11.239
▁अंग्रेजों	-11.2392
▁अंततः	-11.2393
▁boat	-11.2393
▁advised	-11.2396
▁मंडप	-11.2397
▁काले	-11.2397
▁आएगी	-11.2399
▁साधनों	-11.2401
▁reasonable	-11.2401
cation	-11.2402
▁spite	-11.2403
▁Annual	-11.2403
▁Em	-11.2407
▁पर्व	-11.2407
▁brief	-11.241
▁प्रबल	-11.241
▁mar	-11.2413
pra	-11.2414
▁ne	-11.2414
▁facing	-11.2417
▁प्रचालन	-11.2417
▁परिश्रम	-11.2417
▁शंकर	-11.2417
▁grew	-11.2417
▁समूद	-11.2417
pre	-11.2418
हाँ	-11.2418
▁रोज़	-11.2419
▁पैसा	-11.2421
▁criminal	-11.2421
gy	-11.2422
▁representation	-11.2422
क्का	-11.2423
ways	-11.2425
▁appoint	-11.2425
▁Dev	-11.2425
▁qua	-11.2426
has	-11.2427
▁impossible	-11.243
▁traffic	-11.243
▁terminal	-11.243
ita	-11.243
▁चुकता	-11.243
ind	-11.2435
▁signal	-11.2442
▁consumption	-11.2443
▁theatre	-11.2444
▁किले	-11.2444
▁tri	-11.2444
▁भरने	-11.2445
वर्तन	-11.2445
▁मारा	-11.2447
▁देखोगे	-11.2447
▁बडे	-11.2448
▁Earth	-11.245
yo	-11.2452
▁label	-11.2453
▁बीविय	-11.2454
▁pair	-11.2456
▁arrogant	-11.2457
▁legislation	-11.2457
▁रन	-11.2459
▁तेरा	-11.246
▁गईं	-11.2461
ians	-11.2463
▁प्रतिबद्धता	-11.2463
▁शेर	-11.2463
▁ताप	-11.2464
▁छुपा	-11.2465
मेन	-11.2466
▁recognized	-11.2467
▁Hand	-11.2468
▁कनेक्ट	-11.247
▁repair	-11.247
▁housing	-11.247
▁flight	-11.2471
▁असामान्य	-11.2471
▁पौ	-11.2472
▁Program	-11.2476
▁चंद्र	-11.2477
▁रहम	-11.2479
▁poetic	-11.2479
▁05	-11.248
▁printer	-11.2481
म्भ	-11.2484
नक	-11.2484
▁हथियार	-11.2485
▁तीनों	-11.2485
▁कप	-11.2486
▁अज्ञान	-11.2487
▁participate	-11.2487
पास	-11.249
▁अध	-11.2494
ेरी	-11.2494
▁begins	-11.2495
▁अन्तर	-11.2496
▁सोसाइटी	-11.2497
▁अवयव	-11.2497
▁भरपूर	-11.2497
▁integrated	-11.2498
▁आईडी	-11.2499
▁pick	-11.2499
▁रै	-11.2502
▁चीज़ें	-11.2503
▁ज़िक्र	-11.2504
▁None	-11.2505
▁crores	-11.2505
▁सम्पन्न	-11.2507
▁cor	-11.2508
well	-11.2508
▁खिला	-11.251
▁completion	-11.251
▁पहलुओं	-11.251
▁साक्षी	-11.2511
▁प्रमाणित	-11.2511
▁CH	-11.2511
▁permitted	-11.2512
▁considerable	-11.2516
▁बिट	-11.2517
RO	-11.2519
▁पिला	-11.252
▁बनता	-11.252
▁Mat	-11.252
▁बताता	-11.253
▁सन्देह	-11.2537
दूर	-11.2538
▁Font	-11.2538
▁तीसरा	-11.2539
▁offence	-11.2539
▁Amendment	-11.254
▁Germany	-11.2541
▁प्रावधानों	-11.2541
▁diet	-11.2542
▁judges	-11.2542
उनके	-11.2543
▁masses	-11.2543
विन	-11.2545
▁जीवों	-11.2546
▁Fort	-11.2547
▁संगत	-11.2548
▁ring	-11.2548
ूं	-11.255
▁corporate	-11.255
▁disgrace	-11.255
0,000	-11.2551
▁wound	-11.2551
▁filed	-11.2551
▁वाहन	-11.2552
▁Road	-11.2552
▁improved	-11.2556
▁buildings	-11.2558
▁linked	-11.2558
▁pe	-11.2561
▁पैनल	-11.2562
ami	-11.2563
▁Screen	-11.2564
▁excellence	-11.2564
▁felicitations	-11.2564
▁Organization	-11.2564
▁agent	-11.2565
etic	-11.2566
▁फरमाया	-11.2566
जिसपर	-11.2568
▁नकद	-11.2569
▁ge	-11.2571
▁protector	-11.2572
▁onto	-11.2573
▁10.	-11.2575
रात	-11.2576
ग्रह	-11.2577
▁अटल	-11.2577
▁प्रभावशाली	-11.2578
▁अधिकृत	-11.2579
‍	-11.2579
▁स्क	-11.258
▁यहीं	-11.2582
▁bath	-11.2582
▁raw	-11.2583
▁pious	-11.2585
लत	-11.2585
ics	-11.2586
ेगी	-11.2587
▁दादा	-11.2588
▁sharp	-11.2591
▁(6)	-11.2591
▁Left	-11.2591
▁rank	-11.2592
▁forests	-11.2594
▁निष्ठा	-11.2595
▁भक्त	-11.2598
iva	-11.2598
dle	-11.26
लै	-11.26
az	-11.2601
▁cat	-11.2601
▁respond	-11.2603
▁इरादा	-11.2604
▁Cr	-11.2607
▁IP	-11.261
▁religions	-11.2612
car	-11.2615
कट	-11.2615
▁काली	-11.2617
88	-11.2618
▁अं	-11.2621
▁कार्यालयों	-11.2622
ब्र	-11.2623
▁अद	-11.2625
▁via	-11.2625
zo	-11.2626
▁Asian	-11.2626
▁श्रद्धा	-11.2632
जान	-11.2635
▁हिम	-11.2636
क़्	-11.2636
▁mailing	-11.2636
ाज	-11.2638
ky	-11.264
▁झूठा	-11.2642
▁identify	-11.2643
uch	-11.2643
▁passage	-11.2644
▁बाध्य	-11.2645
▁जला	-11.2646
▁fun	-11.265
▁fold	-11.265
▁street	-11.265
गें	-11.2653
▁दोज़ख़	-11.2653
▁split	-11.2658
▁yellow	-11.2658
▁धनराशि	-11.2659
ल्प	-11.2659
▁ni	-11.2659
चक	-11.2661
▁आस्तियों	-11.2662
▁1961	-11.2662
▁hills	-11.2668
▁Way	-11.2668
▁Vir	-11.2672
▁Energy	-11.2672
▁recall	-11.2673
▁मोटर	-11.2674
िला	-11.2677
▁तथ्यों	-11.2678
▁spoken	-11.2678
▁distinction	-11.2679
एँगे	-11.2679
▁farmer	-11.2681
सूची	-11.2681
▁पड़ते	-11.2683
yam	-11.2685
▁cloud	-11.2685
▁मतभेद	-11.2686
▁डॉक्टर	-11.2686
▁क़ा	-11.2688
▁समापन	-11.2691
eb	-11.2694
▁thank	-11.2697
▁Pur	-11.2699
▁prophet	-11.2699
▁व्यापारिक	-11.2699
▁Tourism	-11.2699
▁पचास	-11.27
▁Kingdom	-11.27
▁सारांश	-11.27
▁Similarly	-11.2701
▁worlds	-11.2704
▁आँखों	-11.2704
east	-11.2706
▁स्विच	-11.2706
▁Du	-11.2706
▁ट्रे	-11.2706
▁rapid	-11.2706
▁कृतज्ञता	-11.271
their	-11.2712
▁pra	-11.2712
▁steadfast	-11.2713
▁पाकीज़ा	-11.2713
▁टेलीफोन	-11.2713
▁Lanka	-11.2713
▁कचरा	-11.2714
▁talking	-11.2714
▁regulations	-11.2714
▁भुला	-11.2716
mark	-11.2719
▁realize	-11.2719
▁राज़ी	-11.272
▁प्रतिदान	-11.2721
▁harmony	-11.2727
▁Police	-11.2727
▁incurred	-11.2727
▁प्रवर्तन	-11.2729
▁partition	-11.2729
गृह	-11.2732
▁believes	-11.2734
ress	-11.2734
पट्टी	-11.2734
cro	-11.2734
▁tar	-11.2735
▁despair	-11.274
▁silver	-11.274
▁मुहम्मद	-11.274
▁नकारात्मक	-11.274
▁transmission	-11.274
ऊँ	-11.2741
▁fluid	-11.2742
▁जानना	-11.2745
▁crowd	-11.2746
▁Level	-11.2748
▁वर	-11.275
हू	-11.275
▁Egypt	-11.275
▁ban	-11.2754
▁दार्शनिक	-11.2754
▁लंदन	-11.2754
▁Election	-11.2754
95	-11.2754
र्जन	-11.2755
▁यक़ीन	-11.2756
▁helper	-11.276
rus	-11.2761
ूक	-11.2764
tas	-11.2765
▁alternative	-11.2768
▁combination	-11.2768
▁conservation	-11.2768
▁representative	-11.2769
▁duration	-11.2769
▁armed	-11.2774
▁meat	-11.2776
▁Capital	-11.2777
▁याचिका	-11.2778
▁Meeting	-11.2778
▁row	-11.2781
▁irrigation	-11.2782
▁remembrance	-11.2782
▁deposits	-11.2787
▁Whatever	-11.2787
▁गणित	-11.2791
ories	-11.2792
▁बताते	-11.2793
▁लाएँ	-11.2794
▁Shu	-11.2794
▁trans	-11.2794
▁Value	-11.2796
▁Prasad	-11.2796
▁सावधानी	-11.2796
पुरुष	-11.2797
▁Comp	-11.2797
▁दस्तावेजों	-11.2799
ईमान	-11.2799
▁ठहराया	-11.2799
vis	-11.2801
▁tag	-11.2803
ोज	-11.2804
▁उन्हे	-11.2804
▁millions	-11.2806
▁मेहनत	-11.2809
▁परोक्ष	-11.2809
▁Back	-11.2812
▁गिरा	-11.2813
▁continuous	-11.2816
लम	-11.2817
▁बम	-11.2819
▁acting	-11.282
▁transform	-11.2821
▁resolve	-11.2821
▁Mah	-11.2822
▁Cabinet	-11.2823
▁quantity	-11.2823
▁कालेज	-11.2823
77	-11.2823
▁पुरूष	-11.2824
▁गिनती	-11.2825
▁bestow	-11.2828
▁absolute	-11.283
▁worldly	-11.2831
▁फो	-11.2834
बाद	-11.2837
▁करम	-11.2837
▁ocean	-11.2838
▁कार्यान्वित	-11.2838
▁ends	-11.2838
are	-11.2838
▁भेड़	-11.2838
hy	-11.2839
▁परिवर्तनों	-11.2839
▁Accounts	-11.284
्टे	-11.284
▁उद	-11.2842
▁कीटों	-11.2844
▁बचने	-11.2847
बंध	-11.2848
▁Houses	-11.2848
▁investments	-11.285
▁स्तरीय	-11.285
▁Pandit	-11.2851
ATION	-11.2851
▁अंशदान	-11.2852
▁नौका	-11.2852
▁stamp	-11.2853
▁शीर्षिका	-11.2854
ब्ल	-11.2855
▁स्रोतों	-11.2856
wal	-11.2857
▁Subject	-11.2857
▁constructed	-11.2858
▁साझेदारी	-11.2859
▁idols	-11.2859
ंदा	-11.286
▁mixed	-11.2861
▁warned	-11.2862
▁ego	-11.2862
▁रोकते	-11.2864
र्त	-11.2864
▁terror	-11.2864
▁satisfaction	-11.2865
▁cheque	-11.2865
▁आदर	-11.2865
रंग	-11.2867
००	-11.2867
▁Aware	-11.2869
▁विडियो	-11.287
▁राष्ट्रों	-11.2871
▁represent	-11.2873
▁फ्रांस	-11.2877
▁Jawaharlal	-11.2878
▁देह	-11.2879
▁खिलाड़ी	-11.2879
▁baby	-11.2879
▁रहित	-11.2879
▁वाक्य	-11.288
▁चाहो	-11.2889
▁कमाई	-11.2891
▁Ambedkar	-11.2892
▁injustice	-11.2892
▁आंकड़े	-11.2892
▁th	-11.2893
▁प्रतिलिपि	-11.2894
फ़ी	-11.2894
डल	-11.2895
▁stored	-11.2895
▁ख़ौफ	-11.2897
क्षित	-11.2898
▁गुट	-11.2899
▁photo	-11.29
▁mad	-11.2901
▁stages	-11.2902
cer	-11.2903
▁नाते	-11.2905
▁complaint	-11.2906
ora	-11.2906
▁विचारधारा	-11.2908
ीज	-11.2909
रोध	-11.2912
▁नायक	-11.2913
ोक	-11.2913
▁doom	-11.2914
▁डीवीडी	-11.2914
▁delight	-11.2917
▁conclusion	-11.292
▁गवर्नर	-11.292
▁disorder	-11.292
▁भाइयों	-11.2921
uff	-11.2922
▁बरसात	-11.2924
▁लाभों	-11.2924
▁वृत्त	-11.2925
▁आयकर	-11.2925
▁ठहर	-11.2926
▁हज	-11.2926
▁बजा	-11.2927
▁grand	-11.2931
▁Himachal	-11.2934
▁ख्वाहिश	-11.2935
▁meal	-11.2935
▁मान्य	-11.2937
▁ruin	-11.2938
▁जाग	-11.2938
link	-11.2941
ase	-11.2941
▁disabled	-11.2941
▁पड़ने	-11.2942
▁usage	-11.2945
▁faithless	-11.2946
IA	-11.2948
▁उत्तरदायित्व	-11.2948
▁इराक	-11.2949
▁remarkable	-11.2949
▁organ	-11.2949
▁college	-11.295
▁प्रसारण	-11.2951
▁आएँ	-11.2951
▁Online	-11.2954
▁बाज़ार	-11.2954
▁लक्ष्यों	-11.2954
▁Iraq	-11.2955
▁अध्यक्षता	-11.2955
▁relative	-11.2957
▁External	-11.2961
▁White	-11.2962
▁संगणक	-11.2962
▁grass	-11.2962
▁Christian	-11.2963
tru	-11.2964
ूंगा	-11.2967
▁solid	-11.2968
▁bag	-11.2968
▁ईंट	-11.2968
▁(10	-11.2969
▁organisations	-11.297
आईसी	-11.2972
▁वाल	-11.2973
dia	-11.2973
AYS	-11.2975
▁विज्ञापन	-11.2976
▁तीर्थ	-11.2976
षा	-11.2976
▁पीछा	-11.2977
▁scene	-11.2979
▁humble	-11.2981
ठा	-11.2982
▁देखेंगे	-11.2984
▁Point	-11.2984
sy	-11.2985
47	-11.2985
▁rulers	-11.2987
▁ग्रह	-11.2988
▁झा	-11.2989
कू	-11.299
▁snake	-11.299
▁eastern	-11.2991
▁commission	-11.2991
▁touched	-11.2991
▁डाक्टर	-11.2992
▁(*	-11.2994
▁Jam	-11.2994
▁बांट	-11.2996
▁बर्	-11.3002
▁कन	-11.3002
▁नकल	-11.3002
▁बिन	-11.3003
▁determination	-11.3004
▁1989	-11.3005
▁अपनाई	-11.3005
▁sites	-11.3007
hari	-11.3009
▁rear	-11.3012
▁बालों	-11.3013
’’	-11.3013
▁शेख	-11.3016
▁older	-11.3017
▁वनस्पति	-11.3017
▁Knowledge	-11.3018
▁voluntary	-11.3018
▁नमूना	-11.3018
vy	-11.3019
▁सूरज	-11.3021
▁sal	-11.3025
▁39	-11.3025
▁नमक	-11.3026
▁धान	-11.3027
▁रूस	-11.3027
▁happening	-11.303
थी	-11.3031
▁productivity	-11.3033
▁1976	-11.3033
his	-11.3035
▁prefer	-11.3035
▁समझना	-11.3036
▁pound	-11.3038
rie	-11.3043
▁वस्तुएं	-11.3045
lia	-11.3047
▁GNOME	-11.3047
▁universe	-11.3047
▁पिछला	-11.3048
कत	-11.305
▁spring	-11.305
▁AD	-11.305
how	-11.3052
िकल	-11.3052
▁Committees	-11.3052
▁presentation	-11.3053
▁Ve	-11.3054
लेख	-11.3054
▁चोरी	-11.3059
▁ensuring	-11.3061
▁personnel	-11.3061
▁12.	-11.3061
▁lord	-11.3062
▁लाखों	-11.3062
ग्राम	-11.3065
▁कानूनों	-11.3065
▁क्रोध	-11.3065
▁meetings	-11.3066
▁04	-11.3072
िक्स	-11.3073
▁securities	-11.3075
▁उड़ीसा	-11.3075
anda	-11.3075
▁नारायण	-11.3075
▁dawn	-11.3076
▁संक्रिया	-11.3076
▁difficulties	-11.3077
▁CA	-11.308
rk	-11.3081
▁संयोजन	-11.3081
▁prison	-11.3082
रेट	-11.3082
▁pointed	-11.3084
▁notified	-11.3085
▁Through	-11.3089
▁1970	-11.309
▁पादप	-11.3091
▁Rec	-11.3092
▁package	-11.3093
▁प्रतिरोध	-11.3094
▁interaction	-11.3095
▁march	-11.3096
▁—	-11.3097
▁struck	-11.3097
▁यथार्थ	-11.3103
▁Companies	-11.3103
▁इंग्लैंड	-11.3103
▁बाक़ी	-11.3104
▁आकर्षण	-11.3104
▁पाना	-11.3105
▁मरियम	-11.3105
SP	-11.3105
net	-11.3105
▁प्रवासी	-11.3109
▁camel	-11.3111
ets	-11.3112
▁सूरत	-11.3113
▁corner	-11.3113
ica	-11.3114
▁Brahma	-11.3115
▁departments	-11.3116
▁आस्था	-11.3116
▁Ibrahim	-11.3118
▁कृत्रिम	-11.3118
▁goals	-11.3119
▁demands	-11.3121
▁Agricultural	-11.3132
eck	-11.3132
▁1957	-11.3132
▁allows	-11.3133
▁AT	-11.3138
▁comment	-11.3139
▁करूँ	-11.3141
▁चिन्ह	-11.3141
▁संचित	-11.3142
▁फूट	-11.3145
▁categories	-11.3146
▁अभिभाषण	-11.3146
▁लोकसभा	-11.3147
rry	-11.3148
▁transformation	-11.3149
▁सिख	-11.3149
▁स्वच्छता	-11.3153
nate	-11.3159
.“	-11.316
▁York	-11.316
▁जिलों	-11.3161
▁minor	-11.3163
▁mechanism	-11.3164
▁fr	-11.3164
षण	-11.3165
यक	-11.3165
्रे	-11.3165
▁शिक्षित	-11.3167
▁sudden	-11.3168
▁प्रारम्भ	-11.3172
▁Disc	-11.3173
▁लाइब्रेरी	-11.3175
▁मानकों	-11.3176
▁एं	-11.3176
▁स्मारक	-11.3178
▁चढ़ा	-11.3179
▁प्रतिवादी	-11.318
udi	-11.3181
▁पढ़ते	-11.3181
_	-11.3182
▁केंद्रों	-11.3182
▁एव	-11.3183
▁IS	-11.3189
▁स्थितियों	-11.3189
▁silk	-11.319
▁requested	-11.3193
▁decade	-11.3196
▁तबाही	-11.3197
ons	-11.3197
जीवन	-11.3199
▁निकाह	-11.3202
▁anniversary	-11.3203
▁Place	-11.3204
▁cried	-11.3204
▁मौका	-11.3205
▁लाएँगे	-11.3206
अत	-11.3206
▁कोर्ट	-11.3206
▁su	-11.3212
▁46	-11.3213
▁jobs	-11.3213
▁भावनाओं	-11.3215
▁मनपसंद	-11.3218
▁Sector	-11.3218
▁भागीदार	-11.3218
▁बीत	-11.3218
▁sanction	-11.3219
66	-11.3219
▁herself	-11.322
▁enterprise	-11.3222
▁परेशान	-11.3223
adi	-11.3226
▁planet	-11.3227
▁barrier	-11.3232
▁worse	-11.3232
▁planned	-11.3233
▁लीग	-11.3234
नू	-11.3234
▁driver	-11.3236
▁१०	-11.3237
▁Pal	-11.3241
झा	-11.3241
▁असं	-11.3245
▁diversity	-11.3246
▁shadow	-11.3246
▁ऑफ़लाइन	-11.3247
▁देनेवाला	-11.3247
▁Ramayana	-11.3247
▁1971	-11.3247
65	-11.3248
▁11.	-11.3252
▁बक	-11.3253
▁regime	-11.3253
TS	-11.3254
64	-11.3254
hra	-11.3255
▁invent	-11.3255
▁अगरचे	-11.3257
▁aught	-11.3258
▁comfort	-11.3259
▁starts	-11.3259
▁Full	-11.326
▁गर्भ	-11.326
▁प्रवृत्त	-11.326
▁Spirit	-11.3261
▁protocol	-11.3261
▁removal	-11.3261
▁दुर्लभ	-11.3261
▁Vedic	-11.3261
▁हाउस	-11.3261
▁1974	-11.3261
500	-11.3263
▁tender	-11.3264
▁Custom	-11.3264
▁saving	-11.3266
▁guarantee	-11.3266
▁घूम	-11.3266
विध	-11.3267
▁देवताओं	-11.3268
▁extreme	-11.3268
▁क़रार	-11.3269
most	-11.3269
▁छु	-11.327
ati	-11.3271
▁extract	-11.3272
▁relatives	-11.3273
ाइट	-11.3275
▁अकादमी	-11.3275
▁यातायात	-11.3275
▁फ़ाइलों	-11.3278
▁trained	-11.328
▁marks	-11.3284
▁क्रय	-11.3284
”;	-11.3284
tation	-11.3286
▁संतान	-11.3286
▁dynamic	-11.3287
▁solve	-11.3287
ira	-11.3288
ologist	-11.3289
▁पह	-11.3289
▁Kal	-11.3289
श्री	-11.329
▁haply	-11.329
▁फ्र	-11.329
▁जम	-11.3291
nk	-11.3292
▁आवरण	-11.3293
▁अंडे	-11.3294
▁exit	-11.3296
▁Peace	-11.3299
▁लगाकर	-11.3299
▁बल्लेबाज	-11.3301
DE	-11.3304
▁usual	-11.3304
▁कैंसर	-11.3305
▁महासागर	-11.3305
▁strengthening	-11.3305
▁elephant	-11.3309
▁अपेक्षाकृत	-11.331
पना	-11.331
▁addresses	-11.331
oma	-11.3312
ux	-11.3313
▁खाल	-11.3315
▁adopt	-11.3317
▁strategic	-11.3319
▁निचले	-11.3319
qua	-11.3319
▁64	-11.3323
▁पीड़ा	-11.3325
मण्डल	-11.3325
▁रोम	-11.3326
▁बचे	-11.3326
▁upto	-11.3327
▁anger	-11.3332
डिया	-11.3332
▁Photo	-11.3334
तया	-11.3336
▁Thank	-11.3337
▁पाओगे	-11.3337
▁सच्चाई	-11.334
▁छुट्टी	-11.334
▁सैनिकों	-11.3341
संघ	-11.3342
▁Mac	-11.3344
▁Australia	-11.3344
They	-11.3346
ori	-11.3346
▁सौंदर्य	-11.3348
▁IMAP	-11.3348
▁एक्सचेंज	-11.3348
ome	-11.3348
▁submission	-11.3349
SH	-11.3352
▁दीर्घ	-11.3354
▁righteousness	-11.3354
▁realise	-11.3355
▁बेहिश्त	-11.3355
▁discussions	-11.3357
▁Cell	-11.336
LL	-11.3361
▁एजेंसियों	-11.3363
▁degrees	-11.3363
▁talent	-11.3364
अपना	-11.3364
▁vegetables	-11.3364
रोपण	-11.3365
▁१९९	-11.3366
▁Subscriber	-11.3367
▁समर्थक	-11.3368
▁डरता	-11.337
विचार	-11.337
▁हंस	-11.337
med	-11.3371
eration	-11.3372
gan	-11.3374
▁जरूर	-11.3375
▁Madras	-11.3377
▁दीक्षांत	-11.3377
▁Location	-11.3378
▁vain	-11.3378
▁falls	-11.3379
▁मतदान	-11.3379
▁gradually	-11.3379
▁लम्बी	-11.3382
▁उभार	-11.3383
▁मिलना	-11.3383
ON	-11.3384
▁Apart	-11.3389
▁occurs	-11.339
ोड	-11.339
▁इंदिरा	-11.3392
▁इजाज़त	-11.3392
▁प्लगिन	-11.3392
क्टर	-11.3392
▁हिल	-11.3393
▁browser	-11.3393
▁अवधारणा	-11.3395
▁रोज	-11.3397
▁जगत	-11.3398
▁suffered	-11.3405
▁सुधारों	-11.3405
▁liability	-11.3407
even	-11.3407
▁rid	-11.3408
pol	-11.3409
▁significance	-11.3409
▁mal	-11.3411
▁Audio	-11.3413
▁ju	-11.3414
▁practical	-11.3414
▁Sad	-11.3415
▁rose	-11.3416
हमारी	-11.3418
▁throne	-11.3422
▁बहुमत	-11.3422
▁devoted	-11.3423
▁directions	-11.3424
▁Ban	-11.3426
read	-11.343
lation	-11.3432
46	-11.3432
▁बताने	-11.3432
▁आजीविका	-11.3436
▁तनाव	-11.3436
▁spell	-11.3436
▁पहुँची	-11.3437
▁ड्र	-11.3438
weather	-11.3441
▁मील	-11.3442
▁नरम	-11.3445
▁founded	-11.3446
क्रिया	-11.3447
▁विफलः	-11.3447
▁claimed	-11.345
▁समर्पण	-11.345
▁Template	-11.345
▁धोखे	-11.3451
▁axis	-11.3451
▁defeat	-11.3452
▁दूँ	-11.3452
▁breasts	-11.3455
▁Parliamentary	-11.3455
struct	-11.3455
▁पूछते	-11.3456
▁बनाओ	-11.3456
▁sets	-11.3457
nta	-11.346
▁प्राधिकार	-11.346
▁56	-11.3461
▁गुणा	-11.3461
▁पंजाबी	-11.3463
pic	-11.3463
▁हिस्सों	-11.3465
सभा	-11.3466
▁प्रणालियों	-11.3466
▁हमला	-11.3466
▁शान्ति	-11.3467
key	-11.3469
▁शाखाओं	-11.3472
▁जरूरतों	-11.3477
▁गज	-11.3477
ened	-11.3477
▁49	-11.3479
▁multiply	-11.348
▁व्युत्पन्न	-11.348
▁Ten	-11.3483
खुदा	-11.3484
▁अनन्त	-11.3485
▁प्रजा	-11.3485
वर्धन	-11.349
▁manage	-11.3493
ages	-11.3493
▁park	-11.3495
▁shelter	-11.3495
▁परिचालन	-11.3495
▁मरम्मत	-11.3495
▁मुकदमा	-11.3495
▁पेशेवर	-11.3495
▁stopped	-11.3496
tent	-11.3497
▁करनेवाली	-11.3498
▁पूर्णतः	-11.3499
▁SC	-11.3499
▁मोहम्मद	-11.35
CH	-11.35
▁killing	-11.3501
▁वॉ	-11.3502
▁eternal	-11.3502
▁दुकान	-11.3503
FC	-11.3507
▁Access	-11.3509
▁निवारण	-11.3509
vin	-11.351
▁distress	-11.3511
gr	-11.3511
▁उद्यमों	-11.3511
रित	-11.3513
long	-11.3515
▁स्कूलों	-11.3515
▁तीस	-11.3516
▁widely	-11.352
▁Banks	-11.3522
▁Exalted	-11.3524
▁module	-11.3524
▁नवाचार	-11.3525
▁सारणी	-11.3525
▁manufacture	-11.3526
चन	-11.3526
▁acceptance	-11.3527
▁मश	-11.3529
▁हँसी	-11.353
▁Jain	-11.353
▁terrorist	-11.353
run	-11.3531
▁determine	-11.3537
▁चाहूंगा	-11.3539
▁वार्ता	-11.354
▁हुये	-11.3542
▁minute	-11.3543
▁रजिस्टर	-11.3543
▁आईटी	-11.3545
▁fulfil	-11.3547
▁effectively	-11.3547
▁needy	-11.3551
कना	-11.3551
▁afford	-11.3552
ipp	-11.3554
ame	-11.3554
▁अज	-11.3554
▁वितरित	-11.3554
▁Additional	-11.3554
नेवाली	-11.3555
शिया	-11.3557
▁प्राणी	-11.3557
▁संकल्पना	-11.3559
▁invoke	-11.3559
▁beside	-11.356
▁mistake	-11.3561
▁नाग	-11.3561
▁Child	-11.3569
▁conversation	-11.3569
▁eminent	-11.3569
▁इन्हीं	-11.3569
▁शुरूआत	-11.3569
▁परंपरागत	-11.357
▁grave	-11.357
ज्	-11.3573
▁achievements	-11.3574
▁operate	-11.3574
▁attended	-11.3575
mail	-11.3575
▁Task	-11.3577
▁फौज	-11.3577
▁strange	-11.3579
▁z	-11.3582
▁proxy	-11.3584
▁southern	-11.3584
लाई	-11.3584
▁finger	-11.3585
dhan	-11.3585
▁NPS	-11.3586
▁ऊँचाई	-11.3586
▁उपदेश	-11.3586
▁उत्कृष्टता	-11.3587
▁पाठक	-11.3588
▁merit	-11.3588
▁ऊतक	-11.3589
▁विदेशों	-11.359
▁wholly	-11.3594
▁awarded	-11.3595
▁writings	-11.3595
दृष्टि	-11.3596
▁ignorant	-11.3599
▁चमत्कार	-11.3599
▁flesh	-11.3599
▁Region	-11.3602
ायी	-11.3603
TI	-11.3604
▁क्ष	-11.3607
▁egg	-11.3608
▁liars	-11.3608
▁पूर्णता	-11.3608
▁sake	-11.361
▁greatly	-11.3611
▁leaf	-11.3612
▁contributed	-11.3613
▁petition	-11.3613
▁assembly	-11.3614
▁ordered	-11.3616
▁उड़ान	-11.3616
▁मानने	-11.3616
▁shrine	-11.3621
,–	-11.3623
कल्प	-11.3623
▁Indo	-11.3626
वर्ड	-11.3627
▁Lot	-11.3628
▁Pension	-11.3629
▁printed	-11.3632
▁(23	-11.3634
▁घटित	-11.3634
रोग	-11.3636
भिन्न	-11.3636
काफ़िरों	-11.3643
▁glass	-11.3644
▁केडीई	-11.3644
▁कुबूल	-11.3644
▁preference	-11.3644
▁तीसरी	-11.3646
▁outcome	-11.3646
▁लॉ	-11.365
▁प्रतिज्ञा	-11.3651
ीं	-11.3651
▁संतुष्ट	-11.3656
▁Read	-11.3657
▁मद्रास	-11.3659
▁visual	-11.3659
▁खातों	-11.3659
▁Ye	-11.366
▁हिला	-11.3663
▁शर्तें	-11.3664
दाता	-11.3664
▁arrangements	-11.3665
▁दिखाए	-11.3666
▁ज़ि	-11.3667
▁पहुँचने	-11.3669
वालो	-11.367
67	-11.3672
▁implement	-11.3673
▁valuable	-11.3674
▁nerve	-11.3674
▁10,	-11.3675
▁forwarded	-11.3675
▁dam	-11.3677
्लो	-11.3678
▁ओपन	-11.3679
▁pledge	-11.3679
▁viz	-11.368
▁owned	-11.3681
ारी	-11.3684
▁चलना	-11.3686
▁Details	-11.3689
▁Mercy	-11.3689
▁faculty	-11.3689
▁अनिवासी	-11.3689
▁अनुदेश	-11.3691
▁Zone	-11.3692
▁controlled	-11.3692
ांकन	-11.3694
ूँगा	-11.3694
▁handle	-11.3694
▁imagine	-11.3694
बंदी	-11.3695
▁गले	-11.3696
38	-11.3698
▁ढाल	-11.3703
▁Mount	-11.3704
▁Perhaps	-11.3704
▁admonition	-11.3704
▁अवसंरचना	-11.3704
▁अनुचित	-11.3705
▁specially	-11.3707
ily	-11.3708
▁वैसी	-11.3709
OM	-11.3712
▁नूर	-11.3712
▁recommendations	-11.3712
EL	-11.3713
cast	-11.3716
▁pillars	-11.3717
▁eve	-11.3717
▁Executive	-11.3719
▁infinite	-11.3719
▁deserve	-11.3719
▁Issue	-11.372
fl	-11.3721
uda	-11.3723
▁मुख्यतः	-11.3724
उसका	-11.3726
last	-11.3726
▁backward	-11.3727
▁streams	-11.3728
▁Russia	-11.3728
▁player	-11.373
▁ignorance	-11.3734
▁receiving	-11.3734
सेट	-11.3736
list	-11.3736
▁programs	-11.3742
▁bri	-11.3743
▁Gita	-11.3748
▁फॉर	-11.3749
दीन	-11.3751
▁गलती	-11.3752
NA	-11.3753
▁कार्यकारी	-11.3753
मात्र	-11.3754
घा	-11.3754
wer	-11.3754
▁windows	-11.3757
▁ची	-11.3759
nar	-11.3762
itation	-11.3763
ण्ट	-11.3764
▁weapons	-11.3764
पान	-11.3764
▁Innovation	-11.3764
▁अतएव	-11.3764
बस	-11.3765
ancy	-11.3765
▁investors	-11.3765
▁संजाल	-11.3765
than	-11.3767
▁इलेक्ट्रॉनिक	-11.3767
श्य	-11.3768
▁recovery	-11.3768
▁subjected	-11.3769
▁ran	-11.3771
▁सकने	-11.3771
NC	-11.3772
RC	-11.3774
▁Prem	-11.3776
rain	-11.3778
▁resort	-11.378
सक	-11.3787
▁बां	-11.3791
▁Chaitanya	-11.3795
▁सृष्टि	-11.3795
▁बेकार	-11.3795
▁औज़ार	-11.3795
▁accompanied	-11.3795
▁बगैर	-11.3795
▁deaf	-11.3796
▁गोरा	-11.3798
▁2014)	-11.3801
▁fly	-11.3803
▁कराता	-11.3803
CR	-11.3805
▁Mohan	-11.3808
▁उत्पादकता	-11.3808
▁सिल	-11.381
▁Benefit	-11.381
▁Universities	-11.381
▁Koran	-11.3811
▁op	-11.3813
▁Fe	-11.3815
/-	-11.3816
▁कराई	-11.3818
term	-11.382
हान	-11.3823
▁indigenous	-11.3825
▁Session	-11.3825
▁Download	-11.3825
▁pardon	-11.3825
▁प्रदत्त	-11.3826
▁Major	-11.3826
lid	-11.3828
▁घन	-11.3829
दों	-11.3829
▁boys	-11.3829
उल	-11.383
vas	-11.3833
▁बादल	-11.3833
sar	-11.3836
▁आखिर	-11.3837
▁Hu	-11.3838
▁undertake	-11.384
▁courses	-11.384
▁सृजित	-11.3841
▁cotton	-11.3841
▁मुकदमे	-11.3841
▁गुम	-11.3842
▁1930	-11.3842
कथा	-11.3844
▁कवियों	-11.3846
ताकि	-11.3853
▁mill	-11.3855
▁League	-11.3856
▁ceremony	-11.3856
▁unseen	-11.3856
त्री	-11.3859
▁educated	-11.3859
▁अन्तर्	-11.3863
▁forty	-11.3863
▁wave	-11.3866
▁मनो	-11.3867
▁माफ़	-11.3871
▁समावेश	-11.3871
▁producing	-11.3871
▁उपेक्षा	-11.3871
▁monitoring	-11.3871
▁अपवाद	-11.3875
emp	-11.3875
▁devices	-11.3879
tract	-11.3882
▁papers	-11.3885
▁इस्पात	-11.3887
▁Binoy	-11.3887
▁stress	-11.3889
▁deities	-11.389
▁जंग	-11.3893
SC	-11.3894
▁components	-11.3896
▁fifteen	-11.3902
▁increases	-11.3908
▁वाणी	-11.391
▁72	-11.391
▁इंजीनियरी	-11.391
As	-11.3913
▁quarter	-11.3915
▁वास	-11.3915
त्म	-11.3915
▁shell	-11.3916
▁आज़ाद	-11.3918
▁Mad	-11.3918
क्रि	-11.3921
▁लम्बे	-11.3922
▁गाड़ी	-11.3924
▁दिखाना	-11.3926
▁फुट	-11.3928
थि	-11.3933
▁familiar	-11.3933
▁worst	-11.3933
▁वैष्णव	-11.3933
▁विकासशील	-11.3933
▁डोमेन	-11.3933
▁समकालीन	-11.3933
▁reader	-11.3934
ठीक	-11.3934
▁बाढ़	-11.3935
रियल	-11.3936
▁पशुओं	-11.3938
▁progressive	-11.3938
▁खोजें	-11.3939
▁मित्रता	-11.394
लक	-11.3944
▁Selection	-11.3945
▁claims	-11.3947
▁ठहरे	-11.3947
▁algorithm	-11.3948
▁संकलन	-11.3948
▁technological	-11.3948
▁node	-11.3949
▁पत्रों	-11.395
▁245	-11.395
▁वजन	-11.395
▁माननीय	-11.3951
▁निर्गम	-11.3951
▁आँखें	-11.3951
▁बडा	-11.3952
▁आल	-11.3954
▁Forward	-11.3954
▁मुड़	-11.3956
ट्ठ	-11.3956
लिया	-11.3956
▁sha	-11.3957
▁सेंटर	-11.3957
US	-11.3959
▁गि	-11.3959
▁ख़ा	-11.3959
ड़ों	-11.3959
▁मोहन	-11.396
▁oath	-11.396
MP	-11.3963
100	-11.3963
lish	-11.3964
hin	-11.397
lig	-11.3971
lit	-11.3972
▁breast	-11.3975
सह	-11.3975
▁Gora	-11.3975
नेवालों	-11.3975
धान	-11.3977
ीक	-11.3977
mate	-11.3978
?'	-11.3979
space	-11.3979
कालीन	-11.3979
▁dwelling	-11.3979
▁corporation	-11.3979
▁consultation	-11.3983
▁उपाधि	-11.3983
▁उपलब्धियों	-11.3983
▁reckoning	-11.3984
ele	-11.3987
▁mor	-11.3987
▁musical	-11.3988
▁substantial	-11.3988
▁offspring	-11.3995
▁फूँक	-11.3995
▁रखरखाव	-11.3995
▁Certainly	-11.3997
▁celebrate	-11.4001
▁classical	-11.4001
▁occupation	-11.4002
raja	-11.4003
▁ti	-11.4004
क़त	-11.4004
▁radi	-11.4005
▁equals	-11.4008
▁cup	-11.4008
▁innovative	-11.401
▁खतरनाक	-11.401
▁प्रशासक	-11.401
▁मुकाबले	-11.401
▁कबीर	-11.4012
क्यों	-11.4012
▁drum	-11.4013
▁आर्य	-11.4016
▁covers	-11.4016
▁estimate	-11.4016
ट्रिक	-11.4018
dh	-11.4019
32	-11.402
▁41	-11.402
आउट	-11.402
्टन	-11.4022
▁ग्रे	-11.4022
▁प्रॉक्सी	-11.4026
▁sharing	-11.4026
aging	-11.4029
▁बचपन	-11.4031
▁preserve	-11.4032
बर्ग	-11.4032
▁वसा	-11.4033
▁नौकर	-11.4035
▁भग	-11.4038
▁collect	-11.4038
”,	-11.4039
▁Maharaja	-11.4039
▁85	-11.404
▁ज़िम्मे	-11.404
▁director	-11.4041
▁Prof	-11.4041
▁testimony	-11.4042
▁triumph	-11.4042
▁wrath	-11.4042
▁encouraged	-11.4042
▁दिख	-11.4047
▁विनियमन	-11.4051
When	-11.4052
▁German	-11.4053
▁हैसियत	-11.4057
▁सुनाई	-11.4057
▁internet	-11.4058
▁refuse	-11.4064
ॉँ	-11.4064
▁lesson	-11.4065
जिन	-11.4068
▁घाटा	-11.407
योग्य	-11.4072
▁Hence	-11.4072
▁monitor	-11.4073
▁sequence	-11.4073
▁सितम्बर	-11.4073
iti	-11.4073
पैग़म्बर	-11.4076
▁congratulate	-11.408
▁पते	-11.4082
text	-11.4083
▁insect	-11.4086
▁TRANSLATORS	-11.4088
▁Keep	-11.409
▁शादी	-11.409
▁HTTP	-11.4096
▁subsequent	-11.4097
▁रचनाओं	-11.41
▁bid	-11.4101
▁tremendous	-11.4104
▁पब्लिक	-11.4104
▁Medical	-11.4104
▁photograph	-11.4104
▁टैगोर	-11.4105
state	-11.4106
hand	-11.4109
▁constitutional	-11.411
▁प्रिंटर	-11.4112
▁engine	-11.4112
▁हमपर	-11.4115
▁Sh	-11.4116
▁शत	-11.4117
▁अवरोध	-11.4117
▁काफिर	-11.4118
▁equivalent	-11.412
▁northern	-11.412
▁सामान्यतया	-11.4121
▁expand	-11.4122
▁मिट	-11.4122
▁वस्तुतः	-11.4123
ola	-11.4124
▁सुनकर	-11.4124
▁pit	-11.4124
87	-11.4124
▁arranged	-11.4125
▁normally	-11.4125
▁sensitive	-11.4126
▁गयीं	-11.4127
▁अत	-11.4128
▁पहाड़ों	-11.4131
द्य	-11.4135
▁त्वरित	-11.4136
▁criticism	-11.4137
head	-11.4137
▁स्ट्रिंग	-11.4137
.–	-11.4138
▁शक्तियां	-11.4141
▁Hide	-11.4142
संदत्त	-11.4143
▁कर्ज	-11.4147
▁endeavour	-11.4148
▁सोचते	-11.4148
अगर	-11.415
▁वरीयता	-11.4151
▁संदेशों	-11.4151
▁Za	-11.4151
▁अंग्रेज़ी	-11.4151
▁empire	-11.4151
Laughter	-11.4151
▁कर्मों	-11.4152
▁बॉक्स	-11.4152
▁Goa	-11.4153
▁अनंत	-11.4155
रिस	-11.4156
ाधिकार	-11.4157
बाप	-11.4157
▁finds	-11.4158
▁बांग्लादेश	-11.4159
▁Ri	-11.4165
▁परवाह	-11.4165
▁Format	-11.4167
▁biggest	-11.4167
▁opposite	-11.4167
▁ungrateful	-11.4167
▁होस्ट	-11.4167
▁प्रोटीन	-11.4167
▁इलाकों	-11.4167
▁despite	-11.4167
▁प्रशिक्षित	-11.4168
▁व्यर्थ	-11.4168
▁epic	-11.4168
▁authorised	-11.4169
▁लड	-11.417
▁तालाब	-11.4171
▁रखनेवालों	-11.4171
हाल	-11.4172
▁lessons	-11.4172
ीत	-11.4173
house	-11.4179
▁Sat	-11.4182
▁testing	-11.4182
▁स्नातक	-11.4183
▁कोयला	-11.4183
END	-11.4187
▁SSL	-11.4187
▁लगने	-11.4187
▁स्ट्र	-11.419
NE	-11.4191
फ़र	-11.4191
▁cu	-11.4192
▁छप	-11.4192
▁Wi	-11.4193
▁माउस	-11.4194
being	-11.4195
▁इताअत	-11.4199
▁अनुशासन	-11.42
▁मणिपुर	-11.4201
▁oaths	-11.4204
MA	-11.4205
▁competent	-11.4207
▁बारी	-11.4208
▁Rights	-11.4209
fect	-11.4213
दर्शन	-11.4213
▁अहम	-11.4214
▁Gazette	-11.4215
▁peoples	-11.4215
▁1972	-11.4215
गोया	-11.4219
▁France	-11.4221
▁दंत	-11.4222
37	-11.4223
▁रूपरेखा	-11.4223
rang	-11.4224
PR	-11.4225
▁Je	-11.4228
▁Ser	-11.4228
▁emerging	-11.4231
▁बंबई	-11.4231
▁राजमार्ग	-11.4232
▁रूपये	-11.4232
▁structures	-11.4232
▁संवेदनशील	-11.4232
▁repeat	-11.4233
▁painting	-11.4236
ारा	-11.424
56	-11.4241
▁resulting	-11.4242
▁शैल	-11.4243
कहीं	-11.4243
▁Media	-11.4243
▁ended	-11.4243
ांश	-11.4244
hir	-11.4245
▁lac	-11.4246
▁GNU	-11.4247
▁नाट्य	-11.4247
▁दलों	-11.4247
▁अफगानिस्तान	-11.4247
▁Ltd	-11.4247
▁1949	-11.4247
▁संवेदना	-11.4249
▁bearing	-11.4251
वस्तु	-11.4253
▁Ap	-11.4254
62	-11.4257
▁constantly	-11.4258
▁operative	-11.4259
▁फौरन	-11.426
▁आकर्षक	-11.4263
▁गूगल	-11.4263
tel	-11.4263
▁1960	-11.4263
न्दा	-11.4264
▁बढ़ता	-11.4265
▁सुनी	-11.4266
ीला	-11.4267
महा	-11.4268
▁falling	-11.427
▁नोड	-11.4271
िब	-11.4272
▁पढ़ाई	-11.4272
73	-11.4273
ांतर	-11.4273
▁सिर्फ़	-11.4274
▁faced	-11.4277
▁Run	-11.4278
▁ऊंची	-11.4278
▁1951	-11.4279
CO	-11.4281
▁historic	-11.4282
▁News	-11.4282
ल्फ	-11.4283
▁exactly	-11.4284
▁carefully	-11.4286
▁tank	-11.4287
र्य	-11.4288
▁III	-11.4288
लिखित	-11.4289
▁Said	-11.4291
▁wheel	-11.4294
▁रिज़र्व	-11.4294
▁slaves	-11.4295
▁06	-11.4297
wo	-11.4297
▁entrusted	-11.4297
▁knoweth	-11.4299
MB	-11.4302
▁min	-11.4302
ैक	-11.4303
▁कविताओं	-11.4305
don	-11.4307
▁carbon	-11.4309
▁representatives	-11.431
▁qualities	-11.4311
▁Cap	-11.4311
▁कथित	-11.4311
▁प्रयोगशाला	-11.4312
52	-11.4316
▁translate	-11.4317
▁des	-11.4319
▁dependent	-11.4319
बंद	-11.4322
78	-11.4322
▁vehicle	-11.4325
▁cultivation	-11.4327
▁अधिवेशन	-11.4327
▁proceed	-11.4327
▁विश्वसनीय	-11.4328
▁ज़र	-11.4328
क्यू	-11.4329
▁स्पर्श	-11.4331
▁exceeding	-11.4331
▁catch	-11.4332
भ्य	-11.4335
ched	-11.4335
▁snow	-11.4338
गुनाहों	-11.4339
▁घोष	-11.434
ators	-11.4342
▁अंतरित	-11.4342
▁रासायनिक	-11.4343
▁Manipur	-11.4343
▁करतूत	-11.4343
▁missing	-11.4343
▁dividend	-11.4343
▁bears	-11.4346
्री	-11.4347
▁surrounding	-11.4347
हमने	-11.435
▁मौ	-11.4352
▁Document	-11.4356
▁रेड	-11.4359
▁smooth	-11.4359
99	-11.4359
▁woe	-11.4359
▁reserve	-11.4364
India	-11.4366
▁obvious	-11.4368
▁नकदी	-11.4369
▁एशियाई	-11.4371
ैक्ट	-11.4371
▁खिल	-11.4371
वश	-11.4373
▁definition	-11.4375
▁unaware	-11.4375
▁अवकाश	-11.4375
▁2017)	-11.4375
▁Again	-11.4377
▁डालो	-11.4378
▁retain	-11.4383
▁धारक	-11.4383
▁निरा	-11.4386
kal	-11.4387
चना	-11.4389
▁audience	-11.4391
▁नाबार्ड	-11.4391
▁परिकल्पना	-11.4391
▁injury	-11.4391
▁औजार	-11.4391
र्ष	-11.4391
▁हर्ष	-11.4392
▁दीवारों	-11.4399
▁आजाद	-11.4401
रव	-11.4401
▁विधिक	-11.4403
▁Direct	-11.4403
▁कस	-11.4405
▁पहुंचाने	-11.4405
▁दौरा	-11.4406
ध्या	-11.4407
▁discover	-11.4407
74	-11.4407
▁वसीयत	-11.4407
▁modify	-11.4407
▁किशोर	-11.4408
terior	-11.4409
▁chat	-11.4409
▁Working	-11.4409
era	-11.4409
▁weakness	-11.4411
▁आँख	-11.4412
▁closely	-11.4414
▁उम्मत	-11.4416
ॉक	-11.4416
▁शासित	-11.4417
▁250	-11.4418
▁dreams	-11.4421
▁technique	-11.4422
▁खुल्लम	-11.4423
▁inclusive	-11.4423
▁bomb	-11.4424
▁सर्वथा	-11.4424
▁IIT	-11.4425
िग	-11.4425
▁राजपत्र	-11.4427
बाल	-11.4429
who	-11.443
▁tour	-11.4434
▁दिखाते	-11.4436
▁prop	-11.4438
ानुसार	-11.4439
3.	-11.444
▁Japanese	-11.444
▁कहानियों	-11.444
▁authentication	-11.444
▁600	-11.4441
▁1946	-11.4441
▁bitter	-11.4442
▁रूह	-11.4445
▁listed	-11.4446
▁२०	-11.4446
▁forced	-11.4447
▁पंचायत	-11.4447
garh	-11.4453
ेक्ट	-11.4454
किताब	-11.4454
▁represented	-11.4456
▁सौंपा	-11.4456
▁disaster	-11.4456
▁इबरत	-11.4456
▁सम्बद्ध	-11.4457
▁slay	-11.4458
▁गै	-11.4459
▁सरीह	-11.4459
्यो	-11.446
▁engagement	-11.4461
▁स्टे	-11.4461
▁उगा	-11.4461
ility	-11.4462
बन्द	-11.4463
▁मौजिज़े	-11.4464
▁Oft	-11.4465
▁peaceful	-11.4466
▁सवाब	-11.4468
▁tourist	-11.4468
▁एहकाम	-11.4469
▁"{0}"	-11.4472
▁George	-11.4472
▁grief	-11.4472
▁मेमोरी	-11.4472
gn	-11.4472
▁raising	-11.4473
▁reaching	-11.4473
▁Devi	-11.4475
कारों	-11.4475
▁Hon	-11.4475
▁बू	-11.4476
▁रणनीति	-11.4476
▁sinners	-11.4477
फ्	-11.4482
bhu	-11.4484
▁फूलों	-11.4484
wat	-11.4484
▁pictures	-11.4488
this	-11.4488
▁companion	-11.4488
▁मराठी	-11.4489
▁Natural	-11.4489
▁requirement	-11.449
▁seeks	-11.4492
▁प्राप्तकर्ता	-11.4492
▁गौर	-11.4494
▁ज्यादातर	-11.4495
▁cards	-11.4497
▁fate	-11.4502
▁रोज़े	-11.4502
▁royal	-11.4504
▁execution	-11.4505
▁companions	-11.4505
▁keen	-11.4506
▁सफाई	-11.4506
stan	-11.4507
▁सभापति	-11.4507
▁Gen	-11.4508
▁gate	-11.451
hri	-11.4512
▁fix	-11.4512
्थ	-11.4513
▁Bhag	-11.4513
▁मरने	-11.4514
▁जंगली	-11.4514
मिया	-11.4515
▁ending	-11.4516
▁Does	-11.4518
▁honor	-11.4519
▁slave	-11.452
▁निवेदन	-11.4521
▁""	-11.4524
▁prince	-11.4524
ड़ियों	-11.4525
▁dealt	-11.4526
▁sports	-11.4527
▁वर्गीकरण	-11.4527
UL	-11.4529
▁exception	-11.4531
▁चै	-11.4534
42	-11.4535
▁Railway	-11.4538
71	-11.4538
▁रंगमंच	-11.4538
▁appellant	-11.4538
▁illegal	-11.4538
▁investigation	-11.4538
▁फ्रेम	-11.4539
ध्व	-11.4539
▁धूप	-11.4539
▁ordained	-11.454
▁exc	-11.4542
सिन	-11.4542
▁तरल	-11.4543
▁ठहराते	-11.4544
▁cancer	-11.4546
ao	-11.4547
धे	-11.4548
▁CRA	-11.455
अच्छे	-11.4552
▁sales	-11.4552
▁invest	-11.4553
▁Personal	-11.4553
▁आमदनी	-11.4554
▁aircraft	-11.4554
▁1985	-11.4555
▁eating	-11.4556
vid	-11.4556
ूम	-11.4556
▁वरन्	-11.4556
▁दीं	-11.4557
▁गे	-11.4561
Is	-11.4564
▁52	-11.4565
▁Nagar	-11.4566
▁Sikh	-11.4567
▁emotional	-11.457
▁instruction	-11.457
▁निमित्त	-11.457
▁सहानुभूति	-11.4571
▁Britain	-11.4571
▁इंजीनियरिंग	-11.4571
▁Interest	-11.4573
▁gap	-11.4573
▁regularly	-11.4575
▁कलाम	-11.4575
▁जिन्ना	-11.4576
वादियों	-11.4578
▁फलक	-11.4583
CA	-11.4584
▁VI	-11.4584
यं	-11.4584
▁पढ	-11.4585
▁creates	-11.4586
▁Properties	-11.4587
▁livelihood	-11.4587
▁studied	-11.4587
▁कतिपय	-11.4587
▁हुकूमत	-11.4587
▁खजूर	-11.4587
▁सर्वश्रेष्ठ	-11.4587
▁protest	-11.4587
▁1994	-11.4587
▁किनारा	-11.4587
▁शपथ	-11.4588
▁emerge	-11.4594
pot	-11.4596
▁generated	-11.4596
TION	-11.4597
▁ऊंचे	-11.4603
▁स्त्रियाँ	-11.4603
▁ruling	-11.4603
char	-11.4605
ष्टि	-11.4607
▁सेल	-11.4608
him	-11.4608
ime	-11.4609
▁roots	-11.4609
▁आलेख	-11.4611
▁तन	-11.4611
arian	-11.4612
kin	-11.4612
▁बढ़ाना	-11.4615
▁inserted	-11.4616
▁Empire	-11.462
▁Industries	-11.462
▁divorce	-11.462
▁Officers	-11.4621
▁Update	-11.4621
rom	-11.4621
▁arguments	-11.4622
▁alike	-11.4622
▁peak	-11.4625
vara	-11.4626
rup	-11.4626
▁औषधि	-11.463
▁पार्श्व	-11.4633
▁Ran	-11.4633
▁फॉर्म	-11.4633
▁ढूंढ	-11.4634
▁flowing	-11.4634
▁mothers	-11.4634
▁आयत	-11.4636
▁सौभाग्य	-11.4636
▁Labour	-11.4637
▁teeth	-11.4638
यार	-11.4638
▁निपटने	-11.4639
▁*.	-11.4642
▁आधे	-11.4642
▁Multi	-11.4644
▁फै	-11.4645
▁restore	-11.4645
hr	-11.4645
▁प्ले	-11.4646
▁सर्वज्ञ	-11.4647
▁कॉपी	-11.4648
▁सल	-11.4648
▁Brahman	-11.4649
▁noise	-11.465
▁हममें	-11.4651
▁किलो	-11.4652
▁declaration	-11.4653
▁persist	-11.4653
ku	-11.4655
▁plane	-11.4655
place	-11.4657
▁largely	-11.4661
▁wages	-11.4663
▁जग	-11.4666
▁मैच	-11.4667
▁राजकुमार	-11.4669
▁NABARD	-11.467
▁introduction	-11.467
▁radical	-11.467
PP	-11.4672
रेख	-11.4675
▁imposed	-11.4675
▁pleases	-11.4676
▁क्लब	-11.4676
▁corresponding	-11.4677
▁Cho	-11.4677
▁finished	-11.4679
ena	-11.468
▁गिन	-11.4684
▁chose	-11.4684
▁consequences	-11.4684
▁wheat	-11.4686
▁proposals	-11.4687
▁seats	-11.4687
oth	-11.4688
▁midst	-11.4688
▁helping	-11.469
▁आर्	-11.469
▁शास्त्रीय	-11.4691
zi	-11.4692
ाकर	-11.4693
ela	-11.4693
▁लौटने	-11.4694
▁गीता	-11.4694
▁मनाया	-11.4694
ाओ	-11.4695
दल	-11.4696
ffer	-11.4696
नजात	-11.4696
CS	-11.4696
मुशरेकीन	-11.4703
▁consent	-11.4703
▁Configure	-11.4703
▁entity	-11.4703
▁conferred	-11.4703
box	-11.4704
rg	-11.4705
▁closer	-11.4705
▁वक्तव्य	-11.4705
▁स्वाधीनता	-11.4705
▁सबका	-11.4706
्रि	-11.4706
44	-11.4707
नुमा	-11.4707
num	-11.4707
▁एकत्रित	-11.471
▁generate	-11.471
His	-11.4711
▁decline	-11.4711
▁worthy	-11.4711
▁pull	-11.4711
▁dec	-11.4712
▁Protection	-11.4712
▁बट	-11.4713
▁नोडल	-11.4714
▁ख़ैर	-11.4714
▁छोर	-11.4719
▁yesterday	-11.472
▁impart	-11.472
▁commencement	-11.472
▁Resource	-11.4722
▁2013)	-11.4726
▁सूजन	-11.4726
▁सौदा	-11.4727
▁quit	-11.4732
▁careful	-11.4733
▁चित्रण	-11.4734
▁Investment	-11.4736
▁concerns	-11.4737
▁contrary	-11.4737
▁भत्ता	-11.4737
▁Swa	-11.4737
▁क्रांतिकारी	-11.4737
मूल्य	-11.4738
▁सेंट	-11.4739
बाजी	-11.4741
▁Game	-11.4741
ographic	-11.4741
▁फु	-11.4741
art	-11.4744
बान	-11.4746
▁मिटाना	-11.4749
▁ऊंचा	-11.475
▁जरा	-11.4751
आज	-11.4752
ट्री	-11.4752
▁consisting	-11.4752
▁Majesty	-11.4753
▁अन्जाम	-11.4753
▁license	-11.4753
▁movie	-11.4753
▁माहौल	-11.4753
yl	-11.4755
yard	-11.4755
ैर	-11.4755
▁arrest	-11.4756
▁percentage	-11.4758
▁seal	-11.4763
ye	-11.4765
▁females	-11.4767
▁App	-11.4768
▁कहें	-11.4768
▁hast	-11.477
ड्र	-11.477
ाधीन	-11.477
▁संतोष	-11.477
▁गणतंत्र	-11.477
▁निवेशकों	-11.4772
रिंग	-11.4772
▁ref	-11.4773
So	-11.4773
▁चखो	-11.4774
सिल	-11.4775
▁उपग्रह	-11.4777
▁छिप	-11.478
▁बेटी	-11.4781
▁पहन	-11.4783
▁sincere	-11.4784
▁oriented	-11.4787
▁DAY	-11.4788
▁ट्र	-11.4788
▁रहीं	-11.4788
▁ज्यादती	-11.4789
▁hosts	-11.4794
ene	-11.4795
▁learnt	-11.4795
▁remind	-11.4796
▁Allow	-11.4797
▁wings	-11.4798
▁चूक	-11.4798
▁बोलने	-11.48
▁शाही	-11.48
▁क्यू	-11.48
▁द्रव	-11.4803
▁Sometimes	-11.4804
▁टुकड़ा	-11.4804
▁बरबाद	-11.4804
▁1952	-11.4804
▁अनुभूति	-11.4804
▁PRAN	-11.4804
▁गुनाहगार	-11.4804
▁Process	-11.4805
▁Pri	-11.4807
▁घेरे	-11.481
DR	-11.4811
▁विष	-11.4814
▁किमी	-11.4816
▁खरीदने	-11.4816
▁शीत	-11.4817
▁पाठ्य	-11.4819
▁चौक	-11.4819
▁Turkey	-11.4821
▁Hearing	-11.4821
▁hire	-11.4821
VI	-11.4823
▁मोटे	-11.4826
वती	-11.4826
▁आपदा	-11.4826
▁seat	-11.4829
▁managed	-11.4831
▁बढ़ाया	-11.4832
▁tribes	-11.4834
शो	-11.4835
▁परियोजनाएं	-11.4837
ette	-11.4837
responsibilities	-11.4837
▁सिफ़ारिश	-11.4837
▁harvest	-11.4838
▁summer	-11.4839
▁पक्का	-11.4839
dig	-11.4839
▁गरीबों	-11.4839
▁दत्त	-11.4839
▁सुनो	-11.484
▁consequence	-11.484
पथ	-11.4842
Ad	-11.4843
▁Hall	-11.4845
▁कमर	-11.4845
▁farming	-11.4846
▁Ste	-11.4849
▁feeding	-11.485
hak	-11.485
▁फलों	-11.4852
शाली	-11.4853
▁पेट्रोलियम	-11.4854
▁बैकअप	-11.4854
▁UT	-11.4855
▁Leave	-11.4855
▁Nav	-11.4857
ेंद्र	-11.4858
▁drowned	-11.4859
▁ख़ान	-11.4861
▁मानों	-11.4861
▁पकड़े	-11.4862
▁broke	-11.4862
सान	-11.4866
▁mono	-11.4869
▁sur	-11.4871
▁उन्नयन	-11.4871
▁Greek	-11.4871
▁Five	-11.4872
had	-11.4872
▁lady	-11.4872
▁fearing	-11.4874
▁ब्राउज़र	-11.4876
▁जॉन	-11.4876
cor	-11.4877
▁Never	-11.4879
▁चट्टान	-11.488
▁वैयक्तिक	-11.4881
▁Loan	-11.4883
बै	-11.4886
गू	-11.4886
▁Faith	-11.4888
पश्चिम	-11.4888
▁तत्कालीन	-11.4889
▁साकार	-11.4891
▁consist	-11.4891
चु	-11.4893
TER	-11.4895
▁Mahabharata	-11.4896
▁Get	-11.4897
57	-11.4897
▁emerged	-11.4898
भाषा	-11.4899
▁एज	-11.4903
▁Holy	-11.4905
▁Welfare	-11.4905
▁protein	-11.4905
▁घायल	-11.4905
▁संवैधानिक	-11.4905
▁सशस्त्र	-11.4906
▁succeeded	-11.4906
▁नो	-11.4909
▁shift	-11.491
ches	-11.4912
▁wished	-11.4913
▁ray	-11.4913
▁Agra	-11.4917
▁सांस	-11.4918
▁coast	-11.4918
▁मिश्रित	-11.4919
▁प्रदर्शक	-11.4921
▁घोड़े	-11.4923
ाइज	-11.4923
▁बनाती	-11.4924
▁झु	-11.4924
पुट	-11.4926
▁liable	-11.4926
its	-11.4927
▁installation	-11.4928
सेवा	-11.4932
▁realised	-11.4936
▁निराश	-11.4937
▁grievous	-11.4939
▁mischief	-11.4939
▁silent	-11.4939
▁Organisation	-11.494
▁Money	-11.494
▁नाहक़	-11.494
ific	-11.4941
▁अनुभाग	-11.4941
▁ko	-11.4943
▁dress	-11.4945
▁सै	-11.4949
mic	-11.4949
bol	-11.4949
▁66	-11.495
ME	-11.495
▁वादी	-11.4951
tta	-11.4951
बात	-11.4951
▁aimed	-11.4953
▁Remote	-11.4956
▁सार्थक	-11.4956
▁topic	-11.4957
▁घु	-11.4959
▁जज़ा	-11.4959
त्स	-11.496
▁sail	-11.496
▁छि	-11.496
▁Gram	-11.4961
▁बढ़े	-11.4961
▁छिपाते	-11.4963
▁Give	-11.4963
▁commands	-11.4972
▁abundant	-11.4974
▁earliest	-11.4974
▁Space	-11.4974
ND	-11.4974
▁लपेट	-11.4974
▁संकाय	-11.4975
▁participants	-11.4975
▁hotel	-11.4976
▁surrender	-11.4977
▁essentially	-11.4979
▁Dar	-11.498
SA	-11.4982
▁जाएँगें	-11.4982
ख्या	-11.4984
▁experiences	-11.4984
▁poly	-11.4985
▁shop	-11.4986
▁इनको	-11.4988
▁Dec	-11.499
▁Marathi	-11.4991
▁परहेज़गारी	-11.4991
▁salary	-11.4992
▁मज़े	-11.4993
▁चाँद	-11.4994
▁निभाई	-11.4996
क्‍	-11.4996
-8	-11.4997
▁examine	-11.4999
▁आज्ञाकारी	-11.5001
▁आयुर्वेद	-11.5006
▁scholar	-11.5006
▁keys	-11.5007
)."	-11.5007
▁modified	-11.5008
▁सम्बंध	-11.5008
▁किला	-11.501
▁chest	-11.5013
▁गोली	-11.5014
▁willing	-11.5014
▁थक	-11.5018
▁Thy	-11.5019
▁छोड़ें	-11.502
▁खोजने	-11.502
▁टै	-11.5024
▁mi	-11.5024
▁बंदरगाह	-11.5025
▁अजीब	-11.5025
▁carved	-11.5026
▁attacks	-11.5026
▁gross	-11.5026
▁prompt	-11.5029
rn	-11.5029
न्ह	-11.5029
▁supposed	-11.503
▁Anti	-11.5033
दर्श	-11.5034
▁”“	-11.5035
▁Courts	-11.5035
▁abnormal	-11.5042
▁Professor	-11.5042
▁dignity	-11.5042
▁entrance	-11.5042
▁techniques	-11.5043
oid	-11.5044
▁critic	-11.5044
दिल	-11.5047
▁लाई	-11.5047
▁भो	-11.505
▁deals	-11.5051
mitted	-11.5052
PA	-11.5054
कृति	-11.5058
▁Black	-11.506
▁Engineering	-11.506
▁Throne	-11.506
▁इलाहाबाद	-11.506
▁Nothing	-11.506
▁Tan	-11.5062
▁customs	-11.5064
▁fever	-11.5065
▁feelings	-11.5066
▁नियोजन	-11.5066
भाई	-11.5066
▁समझो	-11.5067
चन्द्र	-11.5067
फि	-11.5067
pho	-11.5069
ियॉ	-11.507
▁अध्य	-11.5072
▁बसव	-11.5075
▁मजदूरी	-11.5077
▁Chennai	-11.5077
▁flu	-11.5077
▁राजाओं	-11.5077
▁healthcare	-11.5077
▁सचिवालय	-11.5077
सामग्री	-11.5078
▁१२	-11.5078
▁semi	-11.5079
▁समायोजन	-11.5079
▁यात्री	-11.508
ert	-11.508
शीलता	-11.5081
चंद्र	-11.5082
▁मोर	-11.5082
▁Governance	-11.5084
▁राव	-11.5084
▁Super	-11.5085
49	-11.5085
▁तुझ	-11.5086
▁permit	-11.5087
▁strengthened	-11.509
▁Header	-11.509
परक	-11.5091
▁Quality	-11.5094
▁पाँव	-11.5094
▁Minimum	-11.5094
▁फिल्टर	-11.5094
▁Airport	-11.5095
▁रहकर	-11.5095
▁Saudi	-11.5095
▁Durga	-11.5096
▁विशेषाधिकार	-11.5097
▁calculated	-11.5097
▁commonly	-11.5102
▁mount	-11.5105
नल	-11.5105
▁Thamud	-11.5112
▁guess	-11.5112
▁नुक़सान	-11.5112
▁Defence	-11.5112
▁causing	-11.5112
▁आवश्य	-11.5112
▁अवतार	-11.5113
including	-11.5114
▁hole	-11.5114
sum	-11.5115
हृ	-11.5115
▁sheep	-11.5115
▁stretch	-11.5115
▁उपहार	-11.5116
SL	-11.5117
▁स्वीकार्य	-11.5121
▁इंजन	-11.5127
▁मुद्रित	-11.5129
▁74	-11.513
▁लाभांश	-11.513
▁converted	-11.5135
▁opposed	-11.5136
▁फिलीस्तीनी	-11.5139
▁इष्ट	-11.5144
▁कॉन्फ़िगर	-11.5146
▁aforesaid	-11.5146
ख्तियार	-11.5146
▁स्तम्भ	-11.5147
▁Punjabi	-11.5148
▁laugh	-11.515
▁कैश	-11.5151
▁loves	-11.5151
▁हमले	-11.5152
ंबर	-11.5152
▁मोटा	-11.5152
▁Hinduism	-11.5154
▁mix	-11.5154
उनसे	-11.5155
▁झोंक	-11.5156
▁धारित	-11.5157
्यता	-11.5157
▁जै	-11.5158
▁बीबी	-11.5159
▁tenant	-11.5161
▁symptoms	-11.5163
▁Computer	-11.5164
▁ऊँची	-11.5164
▁intense	-11.5164
जय	-11.5164
▁united	-11.5166
▁चरम	-11.5166
▁atomic	-11.5169
▁operational	-11.517
▁supporting	-11.5172
▁assume	-11.5172
▁फीस	-11.5173
▁दुर्	-11.5174
▁san	-11.5175
oy	-11.5176
air	-11.5176
▁120	-11.5179
▁aggregate	-11.5181
▁widow	-11.5181
▁श्रद्धांजलि	-11.5181
▁हस्तांतरण	-11.5181
▁महानिदेशक	-11.5182
▁अवशेष	-11.5182
▁conversion	-11.5182
▁पढ़ी	-11.5183
आर्थिक	-11.5183
▁affection	-11.5184
काम	-11.5184
▁शस्त्र	-11.5184
▁आभूषण	-11.5184
▁Messages	-11.5185
▁pace	-11.5186
ीज़	-11.5189
▁printing	-11.5189
▁नियंत्रक	-11.5192
▁Mahal	-11.5197
▁Agreement	-11.5199
▁शरारत	-11.5199
याक़ूब	-11.5199
▁यौन	-11.5199
▁दूरसंचार	-11.5199
दाद	-11.5201
▁समीकरण	-11.5203
रल	-11.5203
tum	-11.5203
▁Standard	-11.5204
▁आंखों	-11.5206
▁6,	-11.5207
▁आजकल	-11.5207
▁आगमन	-11.5207
▁तत्त्व	-11.5212
nan	-11.5215
▁coordinate	-11.5217
▁कारगर	-11.5217
▁सरदारों	-11.5218
▁Chi	-11.5221
▁clothes	-11.5221
▁तस्	-11.5221
▁दरख्त	-11.5221
▁amendment	-11.5223
स्ती	-11.5224
ria	-11.5227
lessness	-11.523
▁hero	-11.5232
▁telling	-11.5233
OP	-11.5233
▁रियायत	-11.5234
▁हाई	-11.5238
▁publish	-11.524
▁secondary	-11.5241
▁थोप	-11.5244
ुष	-11.5247
▁lakhs	-11.5248
ez	-11.525
▁बैक	-11.5252
▁Bhutan	-11.5252
▁संव्यवहार	-11.5253
▁EVE	-11.5253
ायत	-11.5253
▁incident	-11.5255
▁अवगत	-11.5256
-3	-11.5256
▁मिलन	-11.5257
ening	-11.526
▁exalted	-11.526
▁रेशम	-11.5263
▁collective	-11.5263
्ते	-11.5264
▁Yusuf	-11.5269
▁variable	-11.5269
▁Indira	-11.527
▁reduction	-11.527
▁clubs	-11.5271
▁पूर्वोत्तर	-11.5271
डऋ	-11.5272
▁स्क्रिप्ट	-11.5273
▁newspaper	-11.5275
वर्ष	-11.5276
▁insert	-11.5276
▁मोहल	-11.5276
▁आयाम	-11.5278
▁favours	-11.5278
स्टा	-11.5278
▁experiment	-11.5281
▁rightly	-11.5281
▁रोड	-11.5283
▁पुराण	-11.5285
म्बर	-11.5286
▁deceased	-11.5287
▁integrity	-11.5287
▁अहिंसा	-11.5287
▁संरक्षित	-11.5287
▁आज़माइश	-11.5287
▁Insert	-11.5287
▁असंभव	-11.5287
▁caught	-11.5287
केंद्र	-11.5287
▁genetic	-11.5291
▁बड़	-11.5291
▁शास्त्री	-11.5292
▁Paper	-11.5292
▁grade	-11.5293
▁92	-11.5294
96	-11.5294
uous	-11.5294
tem	-11.5294
▁belied	-11.5295
▁protected	-11.5296
▁consumers	-11.5296
▁बैल	-11.5298
▁वृद्ध	-11.5299
▁recommended	-11.53
▁performing	-11.53
rri	-11.5303
▁MAPI	-11.5305
▁blow	-11.5305
▁dramatic	-11.5306
विशेष	-11.5309
▁gland	-11.531
▁chair	-11.531
▁ritual	-11.5311
ाचार्य	-11.5312
▁rapidly	-11.5314
ode	-11.5314
बन	-11.5315
▁header	-11.5321
▁सहन	-11.5321
▁आनुवंशिक	-11.5322
▁भूटान	-11.5322
▁मंजूर	-11.5322
▁1973	-11.5323
बद	-11.5325
▁पैरों	-11.5326
सिक	-11.5327
▁पक	-11.5328
▁USA	-11.533
▁बहका	-11.5331
▁ruler	-11.5331
▁कमल	-11.5333
▁सीट	-11.5334
दम	-11.5337
कान	-11.5337
शे	-11.5338
▁describe	-11.5338
▁continent	-11.534
▁Question	-11.534
▁नींव	-11.534
▁smoke	-11.534
▁inhabitants	-11.534
ुस	-11.5343
▁बदलना	-11.5347
्ती	-11.5351
▁possessed	-11.5351
organ	-11.5352
rag	-11.5354
▁discovered	-11.5355
BS	-11.5356
▁involving	-11.5358
▁ideals	-11.5359
▁Phone	-11.536
▁बंधन	-11.536
सिया	-11.5363
▁Tra	-11.5363
▁सहेज	-11.5366
▁समझी	-11.537
▁टीका	-11.537
ank	-11.5372
▁डालना	-11.5373
पहले	-11.5374
▁mat	-11.5375
▁Survey	-11.5376
▁चिंतन	-11.5376
▁स्थूल	-11.5376
operative	-11.5378
▁witnessed	-11.5378
▁रद्दी	-11.5381
स्थिति	-11.5382
▁render	-11.5382
▁settle	-11.5382
▁Solar	-11.5383
ically	-11.5386
▁स्थलों	-11.539
▁decreed	-11.5391
▁Previous	-11.5394
▁serving	-11.5394
▁stuff	-11.5394
▁pairs	-11.5397
▁अहमद	-11.5397
ापन	-11.5397
चाहे	-11.5401
▁Star	-11.5402
▁acquire	-11.5402
रेखा	-11.5402
▁maintaining	-11.5404
▁मजदूर	-11.5405
▁सेनाओं	-11.541
▁चलाए	-11.541
युक़्त	-11.541
resident	-11.5411
बड़े	-11.5411
▁कच्चे	-11.5411
▁वयस्क	-11.5411
▁श्रीलंका	-11.5411
▁Creator	-11.5412
▁उपभोग	-11.5413
▁arise	-11.5413
▁winter	-11.5414
▁engage	-11.5415
रसूल	-11.5416
▁सड़कों	-11.5418
lal	-11.5418
self	-11.542
oh	-11.542
▁1)	-11.5423
▁पश्च	-11.5423
▁thin	-11.5424
rib	-11.5424
▁8,	-11.5425
▁मंजिल	-11.5425
कस	-11.5426
▁circular	-11.5429
▁parallel	-11.5429
▁कार्यपालिका	-11.5429
▁चक्कर	-11.5429
▁नतीजा	-11.5429
▁भड़कती	-11.543
▁wing	-11.5432
▁ट्रै	-11.5433
▁illness	-11.5436
▁रत्न	-11.5436
िकाओं	-11.5438
हक़	-11.5438
▁gathering	-11.5439
प्रा	-11.544
fin	-11.544
▁withdraw	-11.544
▁pipes	-11.5441
▁खोला	-11.5446
cious	-11.5447
▁compassion	-11.5447
▁Three	-11.5447
▁derivative	-11.5447
▁fragment	-11.5447
▁क्षैतिज	-11.5447
▁आश्वासन	-11.5447
▁Transfer	-11.545
▁waters	-11.545
▁बनाएं	-11.5451
▁slip	-11.5452
▁बताए	-11.5454
▁ultimate	-11.5458
rah	-11.5461
odi	-11.5461
ाली	-11.5461
▁नं	-11.5465
▁वर्षगांठ	-11.5465
▁equation	-11.5465
▁मनोरंजन	-11.5465
▁mouse	-11.5466
▁implementing	-11.5466
▁रोज़ा	-11.5468
इसी	-11.5469
▁roll	-11.5471
▁कोमल	-11.5471
eri	-11.5471
▁देनी	-11.5472
IF	-11.5472
▁ओवर	-11.5472
ियाई	-11.5473
▁putting	-11.5473
▁आंख	-11.5474
▁इम	-11.5475
▁Selected	-11.5476
asa	-11.5477
▁अज्र	-11.5477
▁स्वाद	-11.5477
▁गोवा	-11.5477
▁समस्याएं	-11.5478
mir	-11.5478
▁तालिका	-11.548
▁privilege	-11.5481
▁bliss	-11.5483
▁झुठलाओगे	-11.5483
▁एकजुट	-11.5483
▁क़ब्ल	-11.5484
▁parliamentary	-11.5484
▁संकेतक	-11.5484
▁सन्देश	-11.5485
▁अपूर्ण	-11.5485
▁बरसाया	-11.5486
▁ग्रन्थ	-11.5486
▁दादाओं	-11.5487
▁50%	-11.5487
una	-11.5487
▁धमकी	-11.5489
▁Behold	-11.549
▁बाएं	-11.5493
▁characteristic	-11.5493
Then	-11.5493
▁Connect	-11.5494
▁Soon	-11.5494
▁Islamist	-11.5495
▁bonds	-11.5495
▁separated	-11.5498
▁MP	-11.55
▁हरा	-11.5501
▁varieties	-11.5501
▁डाटाबेस	-11.5501
▁residence	-11.5501
▁flee	-11.5502
▁carries	-11.5502
iff	-11.5504
ेन्द्र	-11.5505
▁गुल	-11.5506
▁questioned	-11.5506
▁treasure	-11.551
▁पाबन्दी	-11.5511
▁मंत्र	-11.5512
▁99	-11.5514
िणी	-11.5514
▁झाड़	-11.5516
▁involves	-11.5517
▁Private	-11.5519
▁possibility	-11.5519
▁bacteria	-11.5519
न्ना	-11.552
▁कतरा	-11.5521
लियों	-11.5521
हाक़	-11.5522
▁कमीशन	-11.5522
▁आचार्य	-11.5527
▁प्रवाहित	-11.5528
▁hence	-11.5531
▁paying	-11.5531
ctor	-11.5532
▁influenced	-11.5533
▁लय	-11.5535
▁befall	-11.5535
▁mortal	-11.5536
▁circuit	-11.5538
▁'{0}'	-11.5538
▁नमूने	-11.5538
▁चेहरा	-11.5538
्‍व	-11.5539
▁statements	-11.5541
▁हरी	-11.5541
▁Common	-11.5542
▁Device	-11.5543
इश	-11.5545
▁सुलेमान	-11.5546
▁Trans	-11.5547
लेखन	-11.5548
▁perish	-11.5551
▁बगल	-11.5552
▁Allahabad	-11.5552
▁Lam	-11.5553
▁निर्माता	-11.5553
▁तदनुसार	-11.5556
▁दीर्घकालिक	-11.5556
▁आँकड़ा	-11.5556
▁सुदूर	-11.5557
▁संग्राम	-11.5558
▁estate	-11.5558
▁disputes	-11.556
▁totally	-11.5561
▁Bio	-11.5562
▁seconds	-11.5566
▁छोड़ने	-11.5569
▁rendered	-11.557
ttle	-11.557
▁फ़रमा	-11.5572
▁bills	-11.5573
▁applicant	-11.5574
▁गर्भाशय	-11.5574
मुखी	-11.5574
▁छः	-11.5575
▁impression	-11.5575
▁stations	-11.5576
कोई	-11.5582
▁inspire	-11.5583
▁ट्रा	-11.5584
pp	-11.5585
▁अपराधियों	-11.5585
कोड	-11.5591
▁अशोक	-11.5592
▁तुम्ही	-11.5592
▁बतौर	-11.5593
▁lit	-11.5593
▁बेहद	-11.5593
CP	-11.5594
▁TV	-11.5595
▁पॉ	-11.5595
▁अप्रत्याशित	-11.5596
ेयर	-11.5598
▁संग्रहण	-11.56
▁आवृत्ति	-11.56
pect	-11.56
आपको	-11.5604
▁खुर	-11.5605
▁मारने	-11.5605
चन्द	-11.5606
sti	-11.5606
AP	-11.5606
ges	-11.5607
तरह	-11.5607
▁निर	-11.5608
▁सूझ	-11.5608
emb	-11.5609
कड़	-11.561
▁Field	-11.561
▁Yojana	-11.561
▁यकीन	-11.561
▁naturally	-11.5614
▁pilgrimage	-11.5615
▁भाग्य	-11.5615
▁ascribe	-11.5616
▁बेचने	-11.5618
▁score	-11.5619
▁हरे	-11.5622
▁enterprises	-11.5623
▁Fir	-11.5626
इंट	-11.5626
▁Valley	-11.5629
▁ज़बरदस्त	-11.5629
▁मुख्यालय	-11.5632
▁125	-11.5633
▁rail	-11.5634
saying	-11.5635
▁बरकत	-11.5639
pid	-11.5639
वस	-11.5641
▁Real	-11.5645
डिंग	-11.5646
▁innocent	-11.5647
▁उपर्युक्त	-11.5647
▁नजदीक	-11.5647
▁ठाकुर	-11.5647
▁dialogue	-11.5647
▁पहना	-11.5647
▁धूल	-11.5648
▁childhood	-11.5649
▁ranks	-11.5649
▁आव	-11.5653
▁गोपन	-11.5653
▁nose	-11.5655
▁वाक़िफ़	-11.5656
▁मुह	-11.5656
▁defendant	-11.5656
▁polytheists	-11.5657
▁श्र	-11.5658
▁cancel	-11.5659
▁लड़ने	-11.566
नन	-11.5665
▁Monotheism	-11.5665
▁achieving	-11.5665
▁सत्याग्रह	-11.5665
▁boost	-11.5665
▁शोषण	-11.5666
▁स्कैन	-11.5666
▁tend	-11.5666
▁procedures	-11.5666
▁seated	-11.5667
▁attained	-11.5667
▁पेय	-11.5669
cular	-11.567
▁Top	-11.567
mod	-11.568
▁बजाए	-11.5681
▁patients	-11.5682
84	-11.5682
far	-11.5683
▁स्वर्ग	-11.5683
▁दरवाजे	-11.5684
▁घमंड	-11.5684
▁सिंहासन	-11.5684
▁Switch	-11.5684
▁महामारी	-11.5684
▁1984	-11.5684
▁सीआरए	-11.5685
य्या	-11.5687
तरा	-11.5687
ाणु	-11.5689
board	-11.5689
▁Stop	-11.569
▁नाटकों	-11.5691
▁करूँगा	-11.5692
१९	-11.5693
सत	-11.5696
ावली	-11.5697
ेन्ट	-11.5697
ement	-11.5702
▁नाव	-11.5702
▁इच्छुक	-11.5702
▁वग़ैरह	-11.5702
▁स्नेह	-11.5702
▁हल्का	-11.5702
▁अपमान	-11.5705
▁बुक	-11.5705
▁मंत्रालयों	-11.5705
▁आधी	-11.5706
वट	-11.5706
▁adding	-11.5708
water	-11.5709
ake	-11.5709
▁झुका	-11.571
▁(15	-11.571
▁appreciate	-11.5711
▁शर	-11.5714
▁fulfill	-11.5715
▁enhanced	-11.5716
▁trend	-11.572
▁administrator	-11.5721
▁vimana	-11.5721
▁forecast	-11.5721
▁सूचक	-11.5721
▁युवक	-11.5721
fall	-11.5721
▁पक्षियों	-11.5722
▁monthly	-11.5723
▁जाननेवाला	-11.5724
hold	-11.5725
▁जोड़ना	-11.5725
स्थापन	-11.5729
een	-11.5732
ware	-11.5732
There	-11.5737
ude	-11.5738
▁brave	-11.5738
▁Culture	-11.5739
▁Procedure	-11.5739
▁William	-11.5739
▁genuine	-11.5739
▁retribution	-11.5739
▁wilt	-11.5739
▁compound	-11.5739
pertaining	-11.574
म्बा	-11.5742
▁नीतिगत	-11.5746
▁gained	-11.5746
▁पड़ोसी	-11.5747
▁डालर	-11.5748
▁Woe	-11.5748
sen	-11.575
▁token	-11.575
थो	-11.5752
▁परिणामों	-11.5752
▁permanently	-11.5752
▁जमे	-11.5752
▁passion	-11.5755
metric	-11.5756
▁वर्क	-11.5756
▁Arabs	-11.5757
▁Convention	-11.5758
▁एख्तेयार	-11.5758
▁वास्तुकला	-11.5758
▁तख्त	-11.5758
▁पूर्णतया	-11.5759
▁पटेल	-11.576
▁प्रतिवर्ष	-11.5761
▁सालों	-11.5761
▁ग्रा	-11.5763
▁thrown	-11.5765
▁repeated	-11.5766
▁perceive	-11.5767
▁schedule	-11.5767
▁अन्याय	-11.5767
ख्य	-11.5767
▁चख	-11.5769
▁समता	-11.5774
्के	-11.5775
▁अद्वितीय	-11.5776
▁उत्सर्जन	-11.5776
▁proviso	-11.5776
▁कुफ्फार	-11.5777
▁सुनवाई	-11.5777
▁माइ	-11.5777
▁Basava	-11.5778
षित	-11.5779
▁somebody	-11.5779
▁जगा	-11.5781
vii	-11.5782
▁lasting	-11.5784
color	-11.5785
cho	-11.5785
▁DE	-11.5787
▁उत्तराधिकारी	-11.5787
▁bore	-11.579
▁टिक	-11.5793
▁produces	-11.5793
▁टेनिस	-11.5795
▁transgressors	-11.5795
▁ग्ल	-11.5797
▁हालात	-11.58
▁स्थिरता	-11.5803
▁trace	-11.5805
-4	-11.5806
68	-11.5811
▁पद्म	-11.5812
tory	-11.5812
▁अपितु	-11.5813
▁मिथ्या	-11.5813
▁Plant	-11.5814
▁प्रभुत्व	-11.5814
▁नवीनतम	-11.5814
▁चित्रित	-11.5815
़ी	-11.5816
72	-11.5816
▁जीवंत	-11.5817
▁Projects	-11.5817
▁सिखाया	-11.5817
▁graduate	-11.5817
▁Shar	-11.5817
bel	-11.582
your	-11.5822
▁अनि	-11.5822
स्ता	-11.5823
▁BY	-11.5825
bed	-11.5826
▁arrested	-11.5828
▁stronger	-11.5829
फो	-11.583
▁सुचरिता	-11.5832
lon	-11.5833
▁कपड़ा	-11.5833
try	-11.5834
▁निकलते	-11.5834
▁पर्यटकों	-11.5835
▁/%	-11.5835
▁poll	-11.5837
ृष्ट	-11.5842
▁inaugurated	-11.5842
UM	-11.5844
lea	-11.5845
▁Truly	-11.5845
▁विपक्ष	-11.5847
▁जं	-11.585
▁contrast	-11.5851
▁primarily	-11.5851
▁विनिधान	-11.5851
▁मुहैया	-11.5851
▁सटीक	-11.5851
▁Railways	-11.5851
▁हारून	-11.5851
▁मेहरबानी	-11.5853
▁Institutions	-11.5856
▁enjoyed	-11.5857
▁जाहिर	-11.5857
▁7,	-11.5858
▁ministers	-11.5862
°	-11.5862
स्‍	-11.5863
▁beat	-11.5864
▁केन्द्रों	-11.5869
▁आधिकारिक	-11.5869
▁स्‍व	-11.587
▁53	-11.5871
▁UP	-11.5871
▁मेन्यू	-11.5871
▁Rai	-11.5872
▁Sho	-11.5873
Peace	-11.5877
▁Tar	-11.5877
▁selling	-11.5879
▁जता	-11.5881
▁प्रबन्ध	-11.5881
▁angel	-11.5882
▁Books	-11.5882
शासित	-11.5882
▁Should	-11.5883
▁जैविक	-11.5884
usa	-11.5886
▁proofs	-11.5887
▁Municipal	-11.5888
▁fifth	-11.5888
▁मॉड्यूल	-11.5888
▁सोचने	-11.5888
▁1963	-11.5889
▁नानक	-11.589
▁walking	-11.589
riya	-11.5891
▁कामकाज	-11.5891
▁accordingly	-11.5891
▁ऋतु	-11.5891
▁दस्त	-11.5891
evil	-11.5892
eshwar	-11.5895
▁भीड़	-11.5896
▁Mur	-11.59
ule	-11.5901
▁reaches	-11.5903
▁superior	-11.5905
point	-11.5906
▁societies	-11.5907
▁आकस्मिक	-11.5907
▁श्रमिक	-11.5907
▁layout	-11.5908
▁कन्	-11.5912
▁बातिल	-11.5914
UT	-11.5914
भारतीय	-11.5917
▁shut	-11.5918
▁फी	-11.5919
पुरा	-11.5919
agon	-11.5921
▁digit	-11.5921
▁दायर	-11.5922
▁हरित	-11.5923
▁sport	-11.5925
▁hatred	-11.5926
▁महफूज़	-11.5926
ppellate	-11.5926
▁1962	-11.5927
▁भेदभाव	-11.5927
ump	-11.5928
▁मुर्द	-11.593
ड्ड	-11.5931
▁लाम	-11.5931
▁नेताजी	-11.5931
▁Islands	-11.5931
▁combined	-11.5932
▁assuredly	-11.5933
▁entrepreneurs	-11.5933
▁वन्य	-11.5933
▁ice	-11.5935
▁परिषद्	-11.5937
▁नाश	-11.5938
▁elder	-11.5938
्ति	-11.5941
▁अवस्थित	-11.5941
▁regret	-11.5945
ग्री	-11.5946
▁संक्षेप	-11.5946
▁अंगों	-11.5949
▁binding	-11.5956
▁amounts	-11.5957
uit	-11.5959
पिंग	-11.5959
gui	-11.5962
▁Automatic	-11.5963
▁artificial	-11.5964
▁आन	-11.5964
▁Summit	-11.5964
▁tract	-11.5964
अन	-11.5964
▁हू	-11.5965
▁organic	-11.5965
▁घो	-11.5966
De	-11.5966
▁जिन्न	-11.5967
dhar	-11.5971
▁पर्यावरणीय	-11.5974
▁slowly	-11.5975
▁del	-11.5977
▁Area	-11.5978
lap	-11.5978
▁दुर्गा	-11.5979
▁plaintiff	-11.5983
▁swift	-11.5983
▁Govt	-11.5983
▁mould	-11.5983
▁प्रचुर	-11.5983
▁मुफ्त	-11.5983
▁मंत्रियों	-11.5987
HI	-11.5988
▁जरुरत	-11.5992
▁लोप	-11.5992
wood	-11.5996
▁राष्ट्री	-11.5996
▁vis	-11.5998
▁stakeholders	-11.6001
▁रोचक	-11.6002
▁lease	-11.6002
▁Having	-11.6003
▁Rate	-11.6004
▁पतन	-11.6005
bus	-11.6009
▁बीवी	-11.6009
प्ल	-11.6009
▁tape	-11.601
मिक	-11.601
lib	-11.6012
▁Chat	-11.6012
▁camera	-11.6015
▁कार्	-11.6016
्ह	-11.6016
मंद	-11.6018
साफ़	-11.602
▁निरन्तर	-11.6021
▁जोड़ी	-11.6021
▁शिर्क	-11.6022
▁स्टोर	-11.6023
वर्	-11.6023
▁लायक	-11.6023
now	-11.6023
▁attribute	-11.6024
▁प्रतिबद्ध	-11.6027
▁सूचीबद्ध	-11.6028
▁माफ	-11.6029
▁Hari	-11.6029
▁err	-11.6029
▁उज	-11.603
▁हरि	-11.6031
पीडीएफ	-11.6031
▁खासकर	-11.6036
मीटर	-11.6038
39	-11.6039
▁पेशी	-11.6039
▁कानों	-11.6039
▁झगड़	-11.604
▁worry	-11.604
▁प्रकोप	-11.604
▁प्रेषक	-11.604
▁राजदूत	-11.604
▁प्रस्तावों	-11.604
▁stability	-11.6041
सम्	-11.6044
हें	-11.6044
▁entering	-11.6045
▁lotus	-11.6049
▁argue	-11.6049
▁किताबों	-11.605
व्	-11.605
▁ईस्ट	-11.6051
▁पावर	-11.6051
▁हक	-11.6053
▁ज़िम्मेदारी	-11.6054
▁निष्	-11.6054
▁imported	-11.6055
▁worker	-11.6056
हीनता	-11.6058
▁स्टॉक	-11.6058
▁मुहर	-11.6058
▁Almighty	-11.6059
▁तरीक़े	-11.6059
▁टॉगल	-11.6059
▁परिदृश्य	-11.6059
▁मैत्री	-11.6059
▁जनजाति	-11.6059
band	-11.606
▁दर्शाया	-11.606
▁अंध	-11.6062
▁corrupt	-11.6063
ural	-11.6064
AND	-11.6065
▁habit	-11.6068
▁Gha	-11.607
पाठ	-11.607
▁artist	-11.607
प्पा	-11.607
▁tall	-11.6071
▁नामों	-11.6073
▁मीम	-11.6075
▁Forum	-11.6076
▁ते	-11.6077
▁सोना	-11.6077
ाशय	-11.6078
▁Lucknow	-11.6078
▁summary	-11.6078
▁Bahadur	-11.6078
▁आवेदक	-11.6078
▁ख़बरदार	-11.6081
▁confined	-11.6082
ital	-11.6082
▁bat	-11.6083
▁Festival	-11.6084
▁स्‍	-11.6084
▁इंटर	-11.6087
63	-11.6096
▁Administration	-11.6097
▁Notwithstanding	-11.6097
▁easier	-11.6097
▁आगरा	-11.6098
▁Always	-11.6098
▁1975	-11.6098
▁नै	-11.6099
▁hunger	-11.6099
▁1%	-11.6103
▁consult	-11.6104
▁कुर	-11.6105
शुल्क	-11.6106
▁pack	-11.611
▁Telugu	-11.6116
▁दाऊद	-11.6116
्मा	-11.6116
▁चित्रकला	-11.6117
▁attractive	-11.6118
▁आशंका	-11.6118
▁recover	-11.612
▁fallen	-11.612
▁Russian	-11.6123
▁आबाद	-11.6125
▁स्टार	-11.6125
▁hundreds	-11.6126
lim	-11.6127
akka	-11.6127
जित	-11.613
▁islands	-11.6131
azi	-11.6132
wn	-11.6133
यात्रा	-11.6133
▁एण्ड	-11.6135
▁Ayurveda	-11.6135
▁imagination	-11.6135
▁साक्षात्कार	-11.6135
▁कनाडा	-11.6135
▁भ्रष्टाचार	-11.6135
▁बर्तन	-11.6136
▁किराए	-11.6137
▁पूजते	-11.6137
stone	-11.6137
▁honoured	-11.6138
▁उर्वरक	-11.6139
ENT	-11.614
view	-11.6141
▁68	-11.6142
▁उग	-11.6143
▁विल	-11.6144
▁फर	-11.6145
▁पटल	-11.6145
pala	-11.6148
ऐसा	-11.6148
▁भेजना	-11.615
▁सुधारने	-11.6151
▁अफसोस	-11.6153
▁tooth	-11.6154
▁sinful	-11.6154
▁Know	-11.6154
▁वीं	-11.6154
▁Speech	-11.6155
▁intervention	-11.6155
▁साक्षरता	-11.6155
▁सामुदायिक	-11.6155
matic	-11.6156
▁revolutionary	-11.6156
योजन	-11.6156
▁virus	-11.6157
▁representing	-11.6157
85	-11.6159
get	-11.6159
▁surrounded	-11.616
भार	-11.6164
▁भव्य	-11.6164
▁proceeding	-11.6169
पक्ष	-11.617
▁stem	-11.617
▁vaccine	-11.6174
▁त्योहार	-11.6174
▁न्यायपालिका	-11.6174
▁connectivity	-11.6174
▁अप्रत्यक्ष	-11.6175
▁1977	-11.6175
▁readers	-11.6175
▁sing	-11.6175
▁खनन	-11.6175
▁Saving	-11.6175
para	-11.6176
▁paintings	-11.6177
▁क्रमांक	-11.6177
ाक़	-11.6179
▁disobey	-11.618
▁आघात	-11.6182
दोनों	-11.6184
▁factory	-11.6184
▁विस्तारित	-11.6185
58	-11.6188
▁evidences	-11.6192
▁beneficial	-11.6193
▁तदबीर	-11.6193
▁बदौलत	-11.6193
▁shock	-11.6194
▁awards	-11.6194
tis	-11.6195
शाह	-11.6195
▁आश्रम	-11.6197
lly	-11.6202
▁remembered	-11.6204
गाह	-11.6205
ae	-11.6208
र्च	-11.621
▁Initial	-11.621
▁bamboo	-11.6213
▁legislative	-11.6213
▁उन्मूलन	-11.6213
▁दोपहर	-11.6213
▁arrow	-11.6213
▁shoot	-11.6213
▁महाद्वीप	-11.6213
▁व्यंजन	-11.6213
tting	-11.6213
▁९	-11.6214
▁अतिथि	-11.6214
▁intimate	-11.6218
▁उपयोगिता	-11.6221
▁Total	-11.6221
▁Icon	-11.6223
▁निकला	-11.6223
97	-11.6224
ावस्था	-11.6225
▁सेवक	-11.6227
▁Long	-11.6229
▁arrival	-11.6232
▁bigger	-11.6233
▁everywhere	-11.6234
▁Toggle	-11.6234
▁transgress	-11.6236
▁समेट	-11.6236
▁विकार	-11.6238
▁रोशनी	-11.6238
वित	-11.6239
▁रूपांतरण	-11.624
any	-11.6241
▁कण	-11.6241
▁models	-11.6241
/%	-11.6243
▁novels	-11.6243
▁dangerous	-11.6243
▁ruled	-11.6244
▁उठता	-11.6249
▁यो	-11.625
▁competitive	-11.625
पोर्ट	-11.625
▁बदकार	-11.625
▁satisfy	-11.6251
▁Bangalore	-11.6251
▁बेटियाँ	-11.6252
▁लड़कियों	-11.6252
▁सर्वप्रथम	-11.6252
▁Title	-11.6252
▁scholarship	-11.6252
▁गीतों	-11.6252
▁महान्	-11.6252
▁True	-11.6254
पूर	-11.6254
बीह	-11.6254
▁exact	-11.6255
कालिक	-11.6255
▁exposed	-11.6255
प्रो	-11.6256
▁चलाएँ	-11.6257
ब्रा	-11.6258
बेहिश्त	-11.6262
▁Maximum	-11.6271
▁expiry	-11.6271
▁जिंदगी	-11.6271
▁इसलिये	-11.6271
▁मधुमेह	-11.6271
▁functional	-11.6271
▁massive	-11.6274
51	-11.6284
▁प्रदेशों	-11.6284
▁बताना	-11.6285
र्श	-11.6286
▁elaborate	-11.6291
▁geographical	-11.6291
▁rejoice	-11.6291
▁लखनऊ	-11.6291
▁हरियाणा	-11.6291
▁Background	-11.6291
▁ठंड	-11.6291
▁keeps	-11.6291
▁सूअर	-11.6291
▁keyboard	-11.6291
▁गतिविधियां	-11.6291
▁तौल	-11.6293
▁पाएंगे	-11.6293
▁advocate	-11.6293
▁perfection	-11.6294
▁sixty	-11.6295
uli	-11.6297
र्द्ध	-11.6297
▁motor	-11.6299
आइ	-11.6299
69	-11.6299
चीन	-11.6302
▁plugins	-11.6302
▁apparent	-11.6303
▁returning	-11.6303
▁विधा	-11.6307
▁beach	-11.6308
▁assured	-11.6309
▁झेल	-11.631
फरिश्तों	-11.631
▁आन्दोलन	-11.631
▁Several	-11.631
▁सम्भावना	-11.631
ख़ा	-11.631
गति	-11.6313
▁प्रतिनिधियों	-11.6313
▁कोण	-11.6313
▁सूचकांक	-11.6315
▁झुठलाते	-11.6317
डू	-11.6317
▁आगामी	-11.6318
▁मजदूरों	-11.6318
▁institutional	-11.6322
▁seize	-11.6322
▁computers	-11.6325
chandra	-11.6328
ulate	-11.6328
▁194	-11.6329
▁मग़फ	-11.633
▁बच्चन	-11.633
▁फ़साद	-11.633
▁क़्योंकि	-11.633
▁distant	-11.633
▁boot	-11.6332
▁Four	-11.6333
▁pool	-11.6334
▁nearer	-11.6335
न्द्र	-11.6336
ेम	-11.6338
▁चर्च	-11.6339
▁Cor	-11.6339
▁जाएँगी	-11.6339
▁Pass	-11.634
▁calm	-11.6341
इयाँ	-11.6344
▁maybe	-11.6345
akh	-11.6345
▁obligation	-11.6346
din	-11.6349
▁commodities	-11.6349
▁museum	-11.6349
▁समेकित	-11.6349
▁climb	-11.6349
▁threw	-11.6349
▁Ray	-11.635
▁श्रेय	-11.635
▁नींद	-11.635
▁मैत्रीपूर्ण	-11.635
▁नोटिस	-11.6351
पूरा	-11.6353
▁anywhere	-11.6355
▁अग	-11.6357
प्रिय	-11.6359
oz	-11.636
▁एन्	-11.6366
▁दाल	-11.6368
बूझ	-11.6368
▁Sikkim	-11.6369
▁झिल्ली	-11.6369
▁Mosque	-11.6369
▁पांव	-11.6369
▁crucial	-11.6369
▁Haryana	-11.6369
▁believer	-11.637
▁निर्वाह	-11.637
▁इधर	-11.6371
▁छेद	-11.6372
▁cache	-11.6373
सिस	-11.6373
ज्य	-11.6373
▁startup	-11.6374
▁इस्लामवादी	-11.6377
▁Nanak	-11.6378
▁borrower	-11.6381
ानंद	-11.6383
▁दमन	-11.6384
▁Grant	-11.6386
▁स्वायत्त	-11.6389
▁प्रेषण	-11.6389
▁रसीद	-11.6389
top	-11.6391
धु	-11.6397
▁क्षमताओं	-11.6398
▁channels	-11.6402
▁Love	-11.6403
▁नरेन्द्र	-11.6403
▁झुठलाने	-11.6403
वरी	-11.6404
▁MIME	-11.6407
▁Function	-11.6409
▁overseas	-11.6409
▁lawyer	-11.6409
▁करेगें	-11.6409
ept	-11.6411
▁scan	-11.6413
▁winds	-11.6414
▁छुपाएँ	-11.6416
▁push	-11.6418
▁extensive	-11.6421
98	-11.6422
▁Gar	-11.6422
▁पट्टे	-11.6423
LI	-11.6424
IST	-11.6425
▁Registration	-11.6428
▁Secretariat	-11.6428
▁delegation	-11.6428
▁explanation	-11.6428
▁integration	-11.6428
▁decrease	-11.6428
▁fortune	-11.6429
▁निक्षेप	-11.6429
▁ट्रस्ट	-11.6429
▁cooperative	-11.6429
▁1857	-11.643
▁मेजबान	-11.6433
▁Jag	-11.6435
▁जानों	-11.6435
▁भ्रम	-11.6437
▁प्राणियों	-11.6439
ड्	-11.6441
▁गतिशील	-11.6442
लैण्ड	-11.6445
चरित	-11.6447
Co	-11.6448
▁meta	-11.6448
▁Protocol	-11.6448
▁डेटाबेस	-11.6448
▁पारदर्शिता	-11.6448
▁Obama	-11.6449
▁कार्यकाल	-11.6449
▁धोखा	-11.6449
▁ख़रीद	-11.6451
▁alter	-11.6451
▁संस्थागत	-11.6452
▁रूट	-11.6452
▁रूचि	-11.6454
▁executed	-11.6456
▁pursue	-11.6459
▁bas	-11.6459
▁सिटी	-11.646
गमन	-11.6463
je	-11.6463
▁blessing	-11.6466
▁दुर्भाग्य	-11.6467
▁sanctioned	-11.6467
▁मामूली	-11.6468
▁स्थानांतरित	-11.6468
▁silence	-11.6468
▁क्लिपबोर्ड	-11.6468
▁ascend	-11.6468
▁Qa	-11.6469
▁Notification	-11.6469
भ्र	-11.6471
▁दोषी	-11.6472
▁स्टाफ	-11.6473
▁अनुभवों	-11.6475
ट्रा	-11.6476
▁अँ	-11.6477
▁भरत	-11.6478
देह	-11.6482
▁Short	-11.6482
▁muscle	-11.6486
EE	-11.6488
▁Kali	-11.6488
▁ऑपरेशन	-11.6488
▁गरिमा	-11.6488
▁मत्स्य	-11.6488
▁licence	-11.6488
▁Promotion	-11.6488
89	-11.6489
▁प्रजातियों	-11.6489
▁मुख्यमंत्री	-11.6489
▁चंद	-11.649
see	-11.649
▁Himalayan	-11.649
ites	-11.6491
▁वक्र	-11.6493
▁transportation	-11.6493
ध्य	-11.6496
▁indicate	-11.6496
▁टूल	-11.6497
▁Bills	-11.6501
bir	-11.6501
▁जुटा	-11.6501
▁Roman	-11.6505
▁आपत्ति	-11.6505
▁resulted	-11.6506
▁organs	-11.6507
▁invented	-11.6507
appa	-11.6508
▁Family	-11.6508
▁swallow	-11.6508
▁वांछित	-11.6508
▁chamber	-11.6508
▁Employment	-11.6508
ौल	-11.6509
▁1955	-11.6509
▁1908	-11.6509
▁घाव	-11.651
off	-11.6511
ESS	-11.6514
▁highlight	-11.6517
व्या	-11.6518
▁तरंग	-11.6518
▁Patel	-11.652
▁tip	-11.6522
▁जिसमे	-11.6524
▁सादा	-11.6525
▁Station	-11.6525
▁rope	-11.6527
▁सांप्रदायिक	-11.6528
▁कमेटी	-11.6528
▁कब्जा	-11.6528
▁तलाक़	-11.6528
then	-11.6529
spiration	-11.6529
▁crash	-11.6529
▁प्रौद्योगिकियों	-11.6529
▁विवश	-11.653
▁औषध	-11.653
▁accessible	-11.653
▁fees	-11.6533
▁आइए	-11.6534
▁spreading	-11.6535
शियन	-11.6536
निर्माण	-11.6538
▁humans	-11.654
ज्ञा	-11.654
▁positions	-11.654
▁अश	-11.6543
▁bearer	-11.6543
▁exceeds	-11.6543
्ले	-11.6544
lah	-11.6544
▁ऊँचा	-11.6545
▁आतंक	-11.6547
▁geo	-11.6548
▁twain	-11.6548
▁ज़्यादती	-11.6548
▁applies	-11.6548
थन	-11.6548
▁Nation	-11.6549
▁Indra	-11.6551
▁फिरते	-11.6552
▁परेशानी	-11.6553
लाभ	-11.6553
्ब	-11.6556
▁पंथ	-11.6557
एसएस	-11.6557
▁Mas	-11.6561
▁pose	-11.6564
्से	-11.6565
ंदी	-11.6567
▁replaced	-11.6568
ाला	-11.6569
hil	-11.6569
▁विनियम	-11.657
ima	-11.657
▁जर्मन	-11.657
न्य	-11.6573
▁ऑन	-11.6575
▁nearest	-11.6576
pul	-11.6577
▁bell	-11.6577
▁duly	-11.658
दायक	-11.658
▁सजद	-11.658
▁Pune	-11.658
▁gram	-11.6581
बल्कि	-11.6581
▁फ़िर	-11.6582
बाबू	-11.6584
ken	-11.6587
▁organisms	-11.6588
▁maturity	-11.6588
▁मुद्रण	-11.6588
▁aspirations	-11.6589
▁1981	-11.6589
▁मरयम	-11.6589
▁खपत	-11.659
▁tied	-11.6592
▁evolved	-11.6593
acy	-11.6595
path	-11.6597
टल	-11.6597
▁मक	-11.6599
▁pal	-11.66
▁sustained	-11.6601
▁रंज	-11.6601
प्राप्त	-11.6601
▁weigh	-11.6601
▁अभिव्यक्त	-11.6603
▁दर्जा	-11.6603
▁mm	-11.6605
ण्य	-11.6607
▁institutes	-11.6608
PL	-11.6608
▁स्त्रोत	-11.6608
▁दशमलव	-11.6608
▁Aaron	-11.6608
▁किराया	-11.6609
▁वाज़े	-11.6609
room	-11.6609
▁Operation	-11.661
▁Memo	-11.661
▁1942	-11.6611
▁निकलता	-11.6611
तिक	-11.6612
▁inherit	-11.6614
▁Ber	-11.6616
▁विगत	-11.6618
सुर	-11.6618
▁लौटना	-11.662
▁Bhai	-11.662
मुक्त	-11.662
जिसे	-11.6621
abha	-11.6621
▁quiet	-11.6621
▁newspapers	-11.6622
▁(7)	-11.6622
was	-11.6622
▁मृतक	-11.6624
लीन	-11.6625
▁associates	-11.6625
card	-11.6625
""	-11.6626
▁Padma	-11.6627
▁हॉल	-11.6628
▁complain	-11.6628
▁reducing	-11.6629
▁फरमाबरदार	-11.6629
▁रेगिस्तान	-11.6629
▁यात्रियों	-11.6629
▁पाएँगे	-11.6629
▁resistance	-11.6629
▁जमाअत	-11.663
▁recognise	-11.663
DP	-11.663
▁टाइम्स	-11.6631
▁स्टाक	-11.6634
▁अंड	-11.6637
▁Young	-11.6637
▁purify	-11.6639
▁बिगड़	-11.6639
▁लड़े	-11.6642
▁references	-11.6644
▁countrymen	-11.6646
▁समाजवादी	-11.6648
▁resist	-11.6649
▁अपशिष्ट	-11.6649
▁विटामिन	-11.6649
▁यहूदियों	-11.6649
▁Transport	-11.6649
▁flame	-11.6649
▁Times	-11.6652
▁परिपत्र	-11.6653
▁बनो	-11.6653
tak	-11.6656
▁बनते	-11.6656
▁बिता	-11.6657
वर्ण	-11.6658
▁focused	-11.666
gue	-11.6661
▁recording	-11.6661
▁गोद	-11.6663
▁Cancel	-11.6663
वृत्ति	-11.6664
▁रंगों	-11.6668
▁Wikipedia	-11.6669
▁virtuous	-11.6669
▁ध्येय	-11.6669
▁पोर्टल	-11.6669
▁Kabir	-11.667
▁बिस्तर	-11.667
▁excessive	-11.6671
▁golden	-11.6672
▁native	-11.6673
▁Vo	-11.6674
▁encounter	-11.6676
▁subscriber	-11.6676
▁periods	-11.6677
बिया	-11.6678
wit	-11.668
▁तारों	-11.6681
▁बारीक	-11.6681
▁बरसा	-11.6682
▁Veda	-11.6682
▁निकालना	-11.6682
मोहम्मद	-11.6682
▁सता	-11.6683
▁lust	-11.6684
wise	-11.6684
▁Bush	-11.6685
43	-11.6687
▁sphere	-11.6688
▁Ministries	-11.6689
▁Reminder	-11.6689
▁suffice	-11.6689
▁Toolbar	-11.669
▁मोहताज	-11.669
▁Design	-11.669
▁calf	-11.6691
▁लेट	-11.6696
▁ढो	-11.6698
lp	-11.6699
▁Load	-11.67
▁Whenever	-11.6701
एंगे	-11.6701
▁angle	-11.6702
साई	-11.6704
▁किताबें	-11.6705
liness	-11.6707
lies	-11.6707
[...]
